a 92486
e 85602
i 82066
o 74030
di 58884
c@@ 53829
che 48549
s@@ 38283
in@@ 37722
d@@ 33871
t@@ 32483
i@@ 32127
p@@ 31962
la 30278
di@@ 29778
ar@@ 29392
o@@ 27698
f@@ 27278
r@@ 27270
m@@ 27200
, 26531
e, 26192
un 26159
an@@ 25914
o, 25786
or@@ 25719
v@@ 25717
è 25536
il 25277
e@@ 24928
o. 24888
in 24503
st@@ 24415
n@@ 24367
ic@@ 24318
are 24184
e. 24164
ci@@ 24119
at@@ 23423
al@@ 23111
si@@ 23058
l@@ 22986
a@@ 22929
b@@ 22417
. 22199
u@@ 21683
on@@ 20245
per 19908
er@@ 19730
pr@@ 19337
le 17676
g@@ 17561
una 17382
ol@@ 17224
tr@@ 16884
ri@@ 16864
it@@ 16639
qu@@ 16580
vi@@ 16458
et@@ 16206
a. 16099
es@@ 16053
a, 16031
en@@ 15668
non 15519
ato 14790
as@@ 14714
av@@ 14490
po@@ 14401
S@@ 14141
am@@ 14010
si 13651
ano 13256
ti@@ 13217
con@@ 13109
os@@ 12766
li@@ 12750
pi@@ 12460
ent@@ 12315
l'@@ 12308
sono 12280
par@@ 12185
un@@ 11997
em@@ 11937
gi@@ 11920
su@@ 11879
ra@@ 11840
se 11723
E 11668
ut@@ 11433
co@@ 11319
per@@ 11299
ver@@ 11019
da 10856
zi@@ 10545
C@@ 10469
is@@ 10360
de@@ 10353
com@@ 10148
ess@@ 10131
ov@@ 10007
ot@@ 9944
do 9941
im@@ 9844
del 9784
i, 9610
pro@@ 9579
eg@@ 9577
ti 9539
to 9507
re@@ 9411
ag@@ 9396
con 9209
come 9196
più 8916
i. 8835
te 8811
mi@@ 8789
bi@@ 8775
ur@@ 8718
el@@ 8656
om@@ 8647
P@@ 8636
ap@@ 8505
ci 8498
'@@ 8443
ec@@ 8442
"@@ 8408
amo 8284
chi@@ 8259
ono 8178
ev@@ 8081
ma 8051
ac@@ 7995
so 7900
sc@@ 7861
della 7773
str@@ 7697
est@@ 7696
? 7694
ell@@ 7671
ch@@ 7604
ò 7589
: 7568
ma@@ 7496
à 7391
questo 7383
ab@@ 7262
gli 7211
ett@@ 7211
and@@ 7027
oc@@ 6929
ale 6856
ter@@ 6720
M@@ 6678
D@@ 6622
mi 6503
T@@ 6434
L@@ 6427
E@@ 6416
ha 6398
lo 6359
att@@ 6302
zion@@ 6294
zz@@ 6283
ati 6266
re 6258
cosa 6195
al 6186
io 6070
ate 6034
qual@@ 6013
pos@@ 5980
vol@@ 5924
for@@ 5907
A@@ 5877
ando 5874
mo@@ 5870
ete 5789
altr@@ 5770
ente 5759
nel 5750
Qu@@ 5750
cor@@ 5718
alla 5656
da@@ 5643
us@@ 5576
il@@ 5542
amente 5502
sp@@ 5470
ni@@ 5405
N@@ 5298
ata 5282
l 5261
ament@@ 5234
ul@@ 5206
col@@ 5166
ità 5123
li 5122
port@@ 5003
um@@ 4997
dei 4996
ica 4970
du@@ 4964
cre@@ 4904
og@@ 4902
1@@ 4888
G@@ 4873
azione 4866
ris@@ 4864
O@@ 4851
nostr@@ 4838
ant@@ 4823
era 4823
pl@@ 4817
azion@@ 4788
ia 4786
z@@ 4784
cer@@ 4781
B@@ 4781
ff@@ 4747
h@@ 4745
ho 4741
op@@ 4718
-- 4688
Ma 4681
one 4665
0@@ 4623
vi 4613
ore 4598
delle 4594
anno 4587
mon@@ 4575
po 4568
zione 4545
Quest@@ 4529
fin@@ 4515
ei 4514
gr@@ 4513
ati@@ 4513
ric@@ 4504
so@@ 4485
ta 4447
molto 4443
ass@@ 4436
lu@@ 4418
ment@@ 4405
dov@@ 4404
questa 4316
' 4310
dere 4305
aggi@@ 4305
inter@@ 4299
cui 4278
siamo 4252
der@@ 4229
abbiamo 4215
uno 4205
essere 4174
sem@@ 4157
à@@ 4155
ere 4124
ad@@ 4100
H@@ 4050
enza 4031
esso 3988
ogn@@ 3987
eb@@ 3962
anche 3903
edi@@ 3902
oll@@ 3897
Non 3888
perché 3881
ist@@ 3852
no@@ 3829
ori 3810
ig@@ 3800
prim@@ 3755
loro 3752
co 3734
quando 3718
V@@ 3694
er 3691
hanno 3666
orn@@ 3646
all@@ 3623
au@@ 3602
mo 3582
dell'@@ 3536
enti 3517
La 3513
anz@@ 3492
lav@@ 3474
pres@@ 3472
tut@@ 3465
all'@@ 3461
etto 3429
be 3418
ser@@ 3416
quell@@ 3408
ne 3396
vo@@ 3390
gli@@ 3383
ce 3380
ante 3352
ad 3323
solo 3316
fare 3315
vit@@ 3253
su 3249
persone 3248
mente 3248
ie 3241
R@@ 3232
man@@ 3218
un'@@ 3211
Il 3201
fic@@ 3186
fr@@ 3179
ai 3175
ali 3164
cam@@ 3151
sta 3150
quello 3132
nell@@ 3124
sul@@ 3123
2@@ 3114
ed@@ 3089
sto 3080
ito 3073
far@@ 3071
tiv@@ 3040
F@@ 3036
met@@ 3032
gen@@ 2976
I@@ 2970
sol@@ 2956
ca 2942
'è 2928
indi 2927
" 2888
de 2888
el 2880
ini@@ 2879
tem@@ 2878
ogli@@ 2872
mol@@ 2871
tutti 2854
ve@@ 2851
br@@ 2848
seg@@ 2846
modo 2837
k@@ 2835
tutto 2834
pens@@ 2810
ven@@ 2809
0 2808
cos@@ 2802
nu@@ 2793
ezz@@ 2789
così 2785
pu@@ 2771
uto 2734
nella 2733
fac@@ 2717
ico 2712
pa@@ 2681
sia 2671
vent@@ 2624
ten@@ 2620
sion@@ 2593
ub@@ 2589
va 2576
d 2564
anni 2559
contr@@ 2550
ire 2542
ing@@ 2530
ber@@ 2513
anto 2509
ast@@ 2500
ento 2488
questi 2487
pen@@ 2476
sar@@ 2472
acc@@ 2471
mia 2471
ra 2470
queste 2464
ed 2460
min@@ 2459
res@@ 2453
y@@ 2449
gra@@ 2435
cont@@ 2431
mio 2420
fatto 2415
entr@@ 2404
-@@ 2398
cc@@ 2396
vere 2393
fi@@ 2387
iamo 2385
pot@@ 2367
pp@@ 2359
indi@@ 2352
ora 2344
guar@@ 2340
ero 2337
stato 2336
ir@@ 2307
biamo 2298
car@@ 2293
quest@@ 2292
ob@@ 2289
eva 2286
diver@@ 2284
ro@@ 2280
rit@@ 2260
enz@@ 2234
pers@@ 2223
men@@ 2198
imm@@ 2197
prog@@ 2186
alle 2177
ali@@ 2163
In@@ 2129
atur@@ 2123
È 2115
pol@@ 2113
se@@ 2088
ori@@ 2084
mer@@ 2079
end@@ 2078
ide@@ 2074
w@@ 2058
bl@@ 2054
Per@@ 2047
." 2042
U@@ 2038
In 2023
00 2019
bil@@ 2019
rag@@ 2010
dav@@ 1995
blem@@ 1995
s 1993
aff@@ 1991
n 1973
fer@@ 1970
bin@@ 1967
bu@@ 1938
stru@@ 1935
Un@@ 1906
stu@@ 1905
cu@@ 1903
me 1903
ve 1881
t 1878
alt@@ 1869
tur@@ 1853
itt@@ 1851
ogi@@ 1838
ì 1830
ben@@ 1829
- 1811
den@@ 1799
gu@@ 1780
ì@@ 1765
k 1764
leg@@ 1760
Al@@ 1759
♫ 1749
ann@@ 1742
5@@ 1731
tu@@ 1695
tra@@ 1694
ung@@ 1678
". 1664
9@@ 1657
ene 1645
..@@ 1634
stem@@ 1626
ché 1614
ran@@ 1601
.@@ 1577
St@@ 1575
sin@@ 1551
u 1542
Com@@ 1540
3@@ 1513
on 1511
y 1502
J@@ 1493
e: 1493
TE@@ 1484
dur@@ 1477
I 1407
oro 1380
K@@ 1370
fun@@ 1368
amm@@ 1361
des@@ 1333
dell@@ 1320
es 1306
Ab@@ 1304
Ch@@ 1301
é 1246
ens@@ 1241
A 1236
D 1229
form@@ 1222
ort@@ 1211
?@@ 1188
W@@ 1169
gl@@ 1144
ef@@ 1140
gan@@ 1103
An@@ 1097
4@@ 1095
olog@@ 1068
ang@@ 1064
onn@@ 1060
and 1043
5 1037
spi@@ 1018
8@@ 999
ru@@ 997
Er@@ 962
ar 959
or 956
ger@@ 940
pt@@ 910
sch@@ 905
an 894
è@@ 873
6@@ 839
fat@@ 835
; 829
g 816
hi@@ 816
fl@@ 813
ier@@ 811
mus@@ 810
7@@ 806
ich@@ 801
ende 781
dar@@ 776
ll@@ 763
! 761
eh@@ 760
inn@@ 750
é@@ 698
te, 698
h 689
x@@ 684
te. 682
aus@@ 673
Y@@ 673
% 648
vor@@ 647
m 642
dr@@ 639
ù@@ 623
’@@ 613
ò@@ 612
2 610
en 610
ei@@ 599
ami@@ 593
son@@ 583
ha@@ 579
Di@@ 568
,@@ 567
ter 562
w 560
ste 546
tern@@ 514
ge 512
ss@@ 510
4 506
r 501
ù 494
off@@ 485
3 458
arb@@ 451
et 437
8 408
p 406
schi@@ 405
iss@@ 405
Ar@@ 404
ge@@ 398
j@@ 397
6 392
1 388
[@@ 377
ern@@ 371
oh@@ 371
7 354
er, 349
Pro@@ 340
ah@@ 319
] 315
enn@@ 308
♪ 306
d, 302
O 299
sier@@ 292
ak@@ 288
as 287
be@@ 284
ein@@ 282
der 273
9 272
d. 268
Z@@ 268
f 265
b 265
sel@@ 263
stell@@ 257
x 243
am 241
af@@ 236
war@@ 233
s, 229
t, 220
her@@ 217
sag@@ 213
!@@ 210
c 202
gel@@ 196
“@@ 194
Be@@ 194
En@@ 187
X@@ 183
man 180
t. 177
spr@@ 175
omm@@ 172
%@@ 172
rei@@ 160
C 157
S 152
V 151
ach@@ 145
ik@@ 142
– 137
tig@@ 135
Gr@@ 135
ech@@ 133
ation@@ 129
Ver@@ 127
um 127
Sch@@ 126
z 125
Au@@ 123
Wi@@ 121
en, 120
eut@@ 119
zu@@ 114
” 112
° 107
kl@@ 107
ch 104
”@@ 98
ek@@ 98
ck@@ 95
all 94
sie 93
die 92
T 90
/@@ 86
hab@@ 85
L 85
hr@@ 83
X 81
im 80
hei@@ 79
:@@ 79
Q@@ 79
q@@ 78
eine 75
♫@@ 74
eu@@ 73
wi@@ 71
Ein@@ 69
en. 67
]@@ 64
den 63
das@@ 62
G 59
ein 58
&@@ 58
lich@@ 56
— 55
hal@@ 55
’ 54
B 53
eit@@ 52
ft 50
;@@ 49
ih@@ 45
wer@@ 45
liche 43
M 43
em 41
Kin@@ 40
und 40
v 39
P 39
R 38
q 36
ú 35
ich 32
Ѐ 32
ach 31
also 30
N 30
st 30
K 30
wir@@ 29
@@@ 29
Ges@@ 28
U 28
«@@ 28
$ 27
á 27
tz@@ 26
… 26
É 26
bei 25
$@@ 24
je@@ 24
á@@ 24
des 22
ung 22
_@@ 22
ann 21
ist 21
@@ 21
ber 21
H 20
» 19
eig@@ 18
í@@ 17
isch@@ 17
F 17
í 17
uns@@ 16
#@@ 16
 @@ 16
wei@@ 15
hat@@ 15
°@@ 15
Y 15
eil@@ 15
bes@@ 15
+@@ 15
ó@@ 14
geb@@ 14
den, 14
hat 13
cht@@ 13
j 13
´@@ 13
+ 12
mit 12
W 12
men 12
etz@@ 11
enn 11
= 11
*@@ 11
den. 10
) 10
»@@ 9
von 9
Q 9
ges@@ 9
ó 9
dies@@ 8
Z 8
cht 8
/ 8
J 8
ã@@ 7
(@@ 7
gib@@ 7
ö@@ 7
unser@@ 7
ä@@ 6
ç@@ 5
ahr@@ 5
ñ@@ 4
“ 4
einer 4
ten 4
=@@ 4
eich@@ 4
อ@@ 4
ü@@ 4
…@@ 3
ú@@ 3
‘@@ 3
ø@@ 3
¼ 3
ê@@ 3
war 3
♪@@ 3
lich 3
_ 3
zu 3
sten 3
als 3
* 2
  2
`@@ 2
ön@@ 2
^ 2
́@@ 2
einf@@ 2
ā@@ 2
ensch@@ 2
[ 2
auf@@ 2
½ 2
´ 2
aus 2
üss@@ 2
uns 2
—@@ 2
@ 2
​@@ 2
ร@@ 2
่@@ 2
gen 2
º 2
È@@ 2
eren 1
²@@ 1
ū@@ 1
Ѐ@@ 1
ist, 1
́ 1
nen 1
² 1
das 1
mir 1
wie 1
dem 1
ł@@ 1
ć 1
İ@@ 1
auf 1
zw@@ 1
` 1
® 1
€ 1
ย 1
ย@@ 1
eit 1
É@@ 1
º@@ 1
vor 1
« 1
 1
@@ 1
™ 1
wur@@ 1
ʿ@@ 1
wird 1
durch 1
einen 1
ungen 1
mö@@ 1
was 1
ï@@ 1
