e 124332
a 97055
i 83976
en 80085
s@@ 79349
, 78629
o 78549
l@@ 69425
t@@ 69089
. 65693
er@@ 65244
m@@ 59505
d@@ 59340
di 58941
n@@ 58692
c@@ 57001
f@@ 56166
k@@ 55381
i@@ 54825
in@@ 54167
e@@ 54042
che 53622
b@@ 53505
t 52530
in 51611
o@@ 50732
r@@ 49322
g@@ 48220
st@@ 47973
en@@ 46841
p@@ 45862
an@@ 45563
ar@@ 43274
a@@ 42918
die 42886
h@@ 41796
or@@ 41311
e, 41238
S@@ 40169
er 40044
und 39831
u@@ 39607
en, 39022
w@@ 38849
di@@ 38225
at@@ 37484
al@@ 35450
der 34868
on@@ 34210
es 33974
M@@ 33811
ch@@ 33707
si@@ 33683
z@@ 33115
e. 31991
un@@ 31346
et@@ 30786
la 30442
en. 30226
el@@ 30159
v@@ 29653
ver@@ 28814
un 28622
ri@@ 28599
es@@ 28171
ic@@ 28141
it@@ 27833
o, 27339
D@@ 26178
te 25592
il 25513
o. 25504
ei@@ 25449
B@@ 24992
are 24965
ol@@ 24742
ci@@ 24395
T@@ 24341
tr@@ 24271
li@@ 24128
eg@@ 23964
s 23901
L@@ 23335
zu 23274
sch@@ 23201
ent@@ 23167
ut@@ 22619
pr@@ 22467
vi@@ 22274
ti@@ 21975
das 21929
G@@ 21786
em@@ 21692
F@@ 21627
am@@ 21432
P@@ 21257
as@@ 21037
den 20993
le 20826
W@@ 20503
per 20455
ich 20242
eine 20088
de@@ 19971
ist 19654
ein 19541
K@@ 19504
au@@ 19052
re@@ 18733
wir 18622
and@@ 18276
zi@@ 18033
ag@@ 17884
ten 17847
ra@@ 17844
a, 17613
H@@ 17531
qu@@ 17477
una 17393
N@@ 17181
a. 16945
: 16904
os@@ 16811
"@@ 16734
l 16727
ein@@ 16711
is@@ 16694
E@@ 16327
ur@@ 16282
t, 16180
so 16000
A@@ 15921
ma@@ 15889
ter@@ 15730
non 15520
se 15502
su@@ 15354
R@@ 15258
? 15254
ell@@ 15090
po@@ 14999
ess@@ 14966
von 14958
pi@@ 14902
Sie 14871
av@@ 14813
est@@ 14808
sie 14806
ato 14805
eh@@ 14716
ot@@ 14331
C@@ 14214
ab@@ 13802
dass 13801
gi@@ 13676
si 13664
us@@ 13569
per@@ 13445
om@@ 13384
ano 13272
der@@ 13213
con@@ 13180
g 13127
par@@ 12996
il@@ 12883
ig@@ 12842
t. 12790
n 12761
da 12603
de 12566
ni@@ 12408
Und 12337
l'@@ 12319
eb@@ 12312
sono 12280
bi@@ 12266
-@@ 11973
da@@ 11798
ung@@ 11794
co@@ 11729
E 11709
nicht 11604
O@@ 11441
r 11381
mit 11310
mi@@ 11289
im@@ 11249
pro@@ 11199
oll@@ 11157
ung 11030
chi@@ 10839
ov@@ 10716
gen@@ 10686
V@@ 10607
y@@ 10601
um@@ 10500
lich 10316
com@@ 10243
ap@@ 10182
auf 10169
wei@@ 10149
del 10091
an 10071
do 10011
1@@ 10002
Z@@ 9866
um 9866
ec@@ 9835
to 9820
wie 9798
Ich 9748
i, 9747
ere 9735
ing@@ 9619
ti 9554
d 9485
all@@ 9452
cht@@ 9385
'@@ 9366
0@@ 9234
con 9209
come 9197
ac@@ 9161
el 9161
ev@@ 9140
ass@@ 9139
I@@ 9065
be@@ 9016
sich 8945
i. 8935
str@@ 8930
sc@@ 8819
ul@@ 8772
m 8652
-- 8619
aus@@ 8619
ge@@ 8604
on 8592
ie 8551
ci 8511
og@@ 8510
ff@@ 8480
einen 8409
ma 8402
j@@ 8368
ati@@ 8363
ale 8334
amo 8286
al 8270
ett@@ 8261
att@@ 8217
ist@@ 8211
ono 8188
gr@@ 8171
sp@@ 8133
k 8033
als 8023
for@@ 7991
St@@ 7877
fin@@ 7825
dem 7795
della 7776
oc@@ 7744
cht 7723
ier@@ 7607
man 7509
re 7466
zu@@ 7442
In@@ 7433
op@@ 7404
questo 7383
br@@ 7324
ei 7322
J@@ 7275
eit 7219
gli 7212
Das 7094
du@@ 7016
Sch@@ 6935
Al@@ 6872
ete 6835
gl@@ 6832
mo@@ 6829
pl@@ 6821
ach@@ 6681
ber@@ 6651
vol@@ 6591
ate 6583
ant@@ 6551
Es 6546
mi 6525
ha 6488
einer 6469
chen 6465
zz@@ 6457
so@@ 6438
Qu@@ 6414
fr@@ 6385
lo 6377
nen 6357
hr@@ 6349
war@@ 6342
wi@@ 6330
2@@ 6323
zion@@ 6295
ati 6281
diese 6270
im 6236
sind 6218
anz@@ 6209
ente 6202
ne 6202
io 6196
cosa 6195
was 6176
U@@ 6167
dies@@ 6166
eit@@ 6161
des 6140
ah@@ 6130
lich@@ 6129
ir@@ 6124
qual@@ 6119
inter@@ 6081
Wir 6073
" 6064
ch 6061
pos@@ 6002
Ver@@ 5989
lu@@ 5962
imm@@ 5954
ando 5889
An@@ 5886
eu@@ 5873
ad@@ 5860
u 5798
altr@@ 5779
nel 5772
cor@@ 5745
ang@@ 5739
sag@@ 5736
einem 5703
0 5692
wenn 5692
alla 5658
ed@@ 5623
amente 5595
auf@@ 5592
den@@ 5572
wer@@ 5559
war 5556
em 5513
and 5512
edi@@ 5491
ament@@ 5463
haben 5461
Ar@@ 5445
ris@@ 5384
kl@@ 5355
ges@@ 5345
Er@@ 5325
ata 5320
tig@@ 5292
st 5275
col@@ 5203
uns 5175
li 5157
ih@@ 5151
port@@ 5125
ter 5056
ob@@ 5042
ica 5024
ia 5016
dei 4997
ar 4972
ek@@ 4965
era 4962
ech@@ 4921
aus 4920
cre@@ 4917
Un@@ 4887
one 4880
azione 4866
oder 4845
mon@@ 4842
b 4841
nostr@@ 4838
dar@@ 4837
end@@ 4801
cer@@ 4795
Pro@@ 4794
azion@@ 4788
." 4787
geh@@ 4772
sin@@ 4767
ho 4757
her@@ 4753
bl@@ 4747
ore 4713
ric@@ 4713
alle 4709
delle 4703
Ma 4682
be 4659
ro@@ 4650
ment@@ 4624
oh@@ 4624
x@@ 4616
vi 4614
po 4609
seh@@ 4599
anno 4587
dere 4561
zione 4545
' 4540
no@@ 4540
aber 4537
Quest@@ 4530
Die 4518
ta 4503
amm@@ 4462
molto 4443
rei@@ 4414
dov@@ 4404
ger@@ 4403
ran@@ 4388
vo@@ 4374
komm@@ 4362
essere 4345
auch 4329
Ges@@ 4320
z 4320
questa 4316
Aber 4313
aggi@@ 4305
man@@ 4295
- 4291
cui 4278
vor@@ 4265
ub@@ 4261
alt@@ 4255
Di@@ 4253
siamo 4252
gli@@ 4246
Jahr@@ 4242
uno 4223
ern@@ 4218
sol@@ 4216
abbiamo 4215
ens@@ 4194
stell@@ 4191
sem@@ 4181
tiv@@ 4159
itt@@ 4150
sten 4149
ogn@@ 4104
00 4093
etz@@ 4077
pa@@ 4058
hab@@ 4039
anche 4035
enza 4033
eben 4023
ann@@ 4014
esso 3990
ser@@ 3988
nur 3976
Non 3888
ihr@@ 3865
ist, 3844
En@@ 3838
mer@@ 3835
ahr@@ 3832
ori 3823
prim@@ 3811
sehr 3808
In 3800
aff@@ 3791
co 3784
ungen 3769
pp@@ 3767
ef@@ 3766
eren 3753
loro 3752
orn@@ 3748
wur@@ 3723
quando 3718
am 3713
ce 3705
gan@@ 3705
hat@@ 3682
eig@@ 3681
hanno 3666
uns@@ 3666
rag@@ 3656
ischen 3647
pres@@ 3627
ante 3623
nell@@ 3618
ben@@ 3598
tut@@ 3598
mo 3585
Wel@@ 3573
f 3562
spi@@ 3556
La 3542
dell'@@ 3537
enz@@ 3532
enti 3519
.@@ 3518
quell@@ 3511
ten@@ 3492
lav@@ 3478
chte 3476
ad 3475
te, 3467
all'@@ 3461
Ein@@ 3459
vit@@ 3455
etto 3432
9@@ 3429
ast@@ 3424
bei 3416
ru@@ 3393
et 3382
5@@ 3373
d, 3368
fi@@ 3363
met@@ 3353
rit@@ 3347
sion@@ 3347
dann 3342
mus@@ 3334
ge 3332
ste 3326
mich 3324
Ih@@ 3321
solo 3318
fare 3315
y 3285
bil@@ 3284
Au@@ 3283
ini@@ 3278
ai 3271
mente 3256
su 3249
persone 3248
ali@@ 3241
er, 3239
un'@@ 3214
noch 3213
far@@ 3212
sto 3209
Il 3201
geb@@ 3195
also 3192
ak@@ 3190
fic@@ 3188
e: 3184
hat 3179
ali 3178
cam@@ 3174
sel@@ 3173
sta 3169
Ch@@ 3159
sul@@ 3159
bin@@ 3146
quello 3132
hier 3124
Menschen 3122
fl@@ 3119
werden 3118
ich@@ 3111
inn@@ 3110
ation@@ 3105
blem@@ 3084
ito 3080
dieser 3078
tem@@ 3074
Per@@ 3072
af@@ 3059
ed 3039
wirk@@ 3034
gibt 3030
me 3030
3@@ 3024
ca 3003
tu@@ 3003
uto 3002
sier@@ 2991
mol@@ 2987
min@@ 2980
ve@@ 2979
ami@@ 2970
hal@@ 2963
fun@@ 2951
zw@@ 2951
nach 2948
pu@@ 2943
TE@@ 2937
onn@@ 2937
eute 2936
d. 2934
indi 2931
Wenn 2925
tra@@ 2923
ort@@ 2920
den, 2913
arb@@ 2910
as 2905
den. 2896
ven@@ 2892
viel@@ 2886
seg@@ 2885
etwas 2880
ogli@@ 2873
wir@@ 2858
tutti 2854
fer@@ 2852
nu@@ 2852
modo 2838
entr@@ 2836
tutto 2834
pens@@ 2816
gu@@ 2806
cos@@ 2804
leg@@ 2801
vent@@ 2796
men@@ 2793
ezz@@ 2792
kann 2778
fac@@ 2763
vor 2752
indi@@ 2750
schi@@ 2749
je@@ 2738
nella 2733
ico 2728
gen 2713
schaf@@ 2703
pen@@ 2689
pers@@ 2689
res@@ 2683
sia 2680
ori@@ 2665
wird 2658
atur@@ 2656
tur@@ 2650
ide@@ 2649
denk@@ 2641
liche 2641
olog@@ 2640
ische 2615
mehr 2611
ra 2602
gra@@ 2601
va 2600
men 2599
spr@@ 2595
sar@@ 2593
Gr@@ 2591
ik@@ 2591
se@@ 2586
pt@@ 2570
einf@@ 2564
anni 2561
dur@@ 2561
ire 2561
pot@@ 2558
contr@@ 2551
bes@@ 2542
ogi@@ 2542
pol@@ 2538
Ab@@ 2528
ck@@ 2522
aub@@ 2512
isch@@ 2512
anto 2510
ensch@@ 2507
mir 2494
ento 2489
questi 2487
ll@@ 2475
acc@@ 2474
mia 2472
ve 2465
queste 2464
tz@@ 2451
stem@@ 2450
son@@ 2449
ene 2445
enn@@ 2443
cont@@ 2440
zum 2436
ach 2433
D 2432
dr@@ 2432
habe 2429
Kin@@ 2428
lichen 2424
vere 2423
eil@@ 2422
mio 2420
cc@@ 2418
eines 2417
fatto 2415
kann@@ 2409
wiss@@ 2404
s, 2401
ora 2392
etzt 2388
eich@@ 2387
iamo 2385
steh@@ 2385
ende 2380
unser@@ 2372
prog@@ 2366
dav@@ 2363
ero 2360
off@@ 2358
tern@@ 2357
". 2356
all 2356
?@@ 2341
guar@@ 2341
durch 2340
ft 2340
stato 2336
or 2327
car@@ 2324
te. 2320
diver@@ 2319
stru@@ 2319
hei@@ 2312
gel@@ 2310
Com@@ 2309
des@@ 2305
form@@ 2304
iss@@ 2302
biamo 2298
quest@@ 2293
bu@@ 2290
eva 2286
stu@@ 2286
Be@@ 2283
..@@ 2271
h 2223
5 2185
4@@ 2175
8@@ 1956
A 1935
cu@@ 1927
ann 1846
; 1798
hi@@ 1784
enn 1783
Wi@@ 1714
6@@ 1698
eut@@ 1680
! 1588
7@@ 1573
I 1538
dell@@ 1513
ss@@ 1478
das@@ 1447
oro 1382
Y@@ 1380
omm@@ 1358
Mensch@@ 1311
2 1261
w 1183
p 1156
% 1143
ha@@ 1131
,@@ 1125
4 979
3 953
8 875
fat@@ 844
1 834
gib@@ 815
6 788
7 733
[@@ 726
x 712
v 619
] 604
9 565
meh@@ 532
ber 466
!@@ 449
S 407
c 387
O 377
X@@ 286
C 284
V 260
%@@ 239
&@@ 235
/@@ 228
T 211
;@@ 210
:@@ 154
]@@ 141
Q@@ 134
L 115
X 114
P 113
B 111
q@@ 101
M 94
N 94
G 90
R 76
U 68
K 64
$@@ 62
$ 47
H 45
_@@ 45
F 39
q 39
@@@ 38
W 37
= 31
/ 28
+ 26
Y 26
Q 24
) 23
j 23
[ 22
#@@ 21
+@@ 20
J 20
Z 20
*@@ 12
(@@ 11
_ 7
=@@ 6
^ 6
* 3
@ 3
`@@ 3
@@ 2
` 2
^@@ 1
