e 84083
a 70153
di 58941
, 51449
che 51398
in 49229
en 47775
. 45190
o 44136
i 43363
die 42886
und 39831
s@@ 38787
er@@ 38676
t@@ 34774
l@@ 33196
d@@ 32981
der 32810
e, 32517
f@@ 32499
en, 32340
k@@ 31629
in@@ 31359
t 31082
o@@ 30555
i@@ 29292
er 28867
m@@ 28834
la 28799
st@@ 27597
un 26752
en. 26570
ar@@ 26482
es 26386
n@@ 26190
en@@ 25870
e@@ 25690
il 25513
e. 25354
r@@ 25104
S@@ 24392
b@@ 24205
g@@ 24162
an@@ 23826
M@@ 23549
zu 23274
are 23226
p@@ 23086
c@@ 22688
h@@ 22440
o, 21940
das 21929
di@@ 21547
u@@ 21345
o. 20684
ri@@ 20658
per 20455
at@@ 20331
ich 20242
D@@ 20187
te 20062
or@@ 20056
ver@@ 19683
ist 19654
le 19480
a@@ 18979
den 18954
wir 18622
z@@ 18424
K@@ 17965
s 17693
es@@ 17436
una 17393
si@@ 17226
el@@ 16864
a, 16511
B@@ 16476
ten 16452
al@@ 16346
a. 15842
vi@@ 15736
ein 15659
T@@ 15638
w@@ 15610
non 15520
ch@@ 15471
on@@ 15357
"@@ 15341
F@@ 15237
eine 15125
t, 15116
li@@ 14980
von 14958
P@@ 14950
et@@ 14921
Sie 14871
sie 14806
ato 14805
L@@ 14371
v@@ 14241
sch@@ 14235
H@@ 14152
ol@@ 13921
N@@ 13896
un@@ 13852
dass 13801
si 13664
G@@ 13647
em@@ 13407
it@@ 13342
A@@ 13328
au@@ 13261
t. 12790
ut@@ 12739
W@@ 12738
da 12603
so 12578
ent@@ 12410
Und 12337
l'@@ 12319
re@@ 12281
se 12206
ein@@ 12196
per@@ 12174
ic@@ 12044
-@@ 11973
am@@ 11940
ur@@ 11864
E 11709
nicht 11604
: 11370
mit 11310
C@@ 11279
R@@ 11224
sono 11071
ung 11030
ei@@ 10804
pi@@ 10789
tr@@ 10760
ag@@ 10752
os@@ 10649
av@@ 10484
zi@@ 10261
is@@ 10196
auf 10169
del 10091
ci@@ 10030
pr@@ 10013
gi@@ 9992
um 9866
eg@@ 9799
wie 9798
da@@ 9794
Ich 9748
de@@ 9736
ano 9650
O@@ 9640
ti@@ 9635
ot@@ 9533
and@@ 9466
ra@@ 9233
con 9209
come 9197
der@@ 9187
sich 8945
ter@@ 8941
i, 8869
qu@@ 8831
an 8764
-- 8619
est@@ 8593
ci 8511
einen 8409
ma 8402
om@@ 8362
us@@ 8339
ale 8334
y@@ 8323
al 8270
ec@@ 8246
sp@@ 8133
be@@ 8095
i. 8030
als 8023
um@@ 8004
? 8002
g 7811
dem 7795
della 7776
con@@ 7706
to 7675
chi@@ 7637
as@@ 7601
po@@ 7525
man 7509
ig@@ 7505
E@@ 7494
mi@@ 7467
ess@@ 7436
questo 7383
amo 7341
aus@@ 7333
ett@@ 7323
su@@ 7231
all@@ 7210
Das 7094
1@@ 7093
fin@@ 6968
eb@@ 6959
Sch@@ 6935
for@@ 6876
oc@@ 6873
ete 6835
de 6834
St@@ 6831
m 6796
ab@@ 6760
ma@@ 6634
Z@@ 6616
V@@ 6591
co@@ 6584
ate 6583
sc@@ 6578
ell@@ 6567
ant@@ 6551
Es 6546
mi 6525
ha 6488
par@@ 6461
I@@ 6429
cht@@ 6407
J@@ 6385
lo 6377
ge@@ 6357
ati 6281
diese 6270
ist@@ 6249
d 6240
gen@@ 6238
im 6236
sind 6218
ap@@ 6210
eh@@ 6181
was 6176
des 6140
lich 6104
Wir 6073
og@@ 6071
do 6018
ere 6005
Ver@@ 5989
ie 5961
ac@@ 5924
An@@ 5886
ad@@ 5860
il@@ 5853
zu@@ 5819
n 5798
im@@ 5775
nel 5772
ier@@ 5763
einem 5703
wenn 5692
str@@ 5661
l 5617
amente 5595
auf@@ 5592
op@@ 5586
ni@@ 5566
war 5556
bi@@ 5525
and 5512
In@@ 5479
haben 5461
gli 5457
re 5451
einer 5439
ul@@ 5436
el 5421
ber@@ 5397
ris@@ 5384
vol@@ 5366
kl@@ 5355
ne 5332
Er@@ 5325
chen 5300
cht 5209
uns 5175
'@@ 5149
ung@@ 5142
mo@@ 5077
io 5053
pro@@ 5022
dei 4997
ing@@ 4990
lu@@ 4971
era 4962
fr@@ 4956
aus 4920
att@@ 4876
azione 4866
sag@@ 4857
ando 4852
oder 4845
dar@@ 4837
eit@@ 4821
wei@@ 4819
end@@ 4801
k 4800
." 4787
ev@@ 4781
ono 4778
ho 4757
ti 4731
ass@@ 4725
ore 4713
alle 4709
delle 4703
Ma 4682
ov@@ 4675
on 4649
gl@@ 4645
vi 4614
anno 4587
zione 4545
aber 4537
j@@ 4533
oll@@ 4525
Die 4518
com@@ 4503
ed@@ 4501
cosa 4469
molto 4443
rei@@ 4414
essere 4345
auch 4329
questa 4316
Aber 4313
man@@ 4295
- 4291
cui 4278
ach@@ 4276
vor@@ 4265
uno 4223
Al@@ 4219
ern@@ 4218
sol@@ 4216
abbiamo 4215
ata 4208
inter@@ 4207
ens@@ 4194
alla 4191
stell@@ 4191
ang@@ 4188
li 4168
ica 4149
sten 4149
ir@@ 4124
0@@ 4123
" 4077
cre@@ 4069
st 4057
ter 4044
ia 4039
anche 4035
ann@@ 4014
cor@@ 3985
nur 3976
r 3969
war@@ 3907
Non 3888
ek@@ 3856
ist, 3844
lich@@ 3826
ori 3823
du@@ 3814
Un@@ 3808
sehr 3808
ro@@ 3805
In 3800
co 3784
ungen 3769
pp@@ 3767
ef@@ 3766
ric@@ 3765
loro 3752
quando 3718
am 3713
ce 3705
ente 3705
geh@@ 3692
hanno 3666
cer@@ 3628
ante 3623
tig@@ 3604
ges@@ 3602
col@@ 3599
ben@@ 3598
em 3585
mo 3585
bl@@ 3575
f 3562
Qu@@ 3551
ati@@ 3550
br@@ 3545
La 3542
ger@@ 3542
dell'@@ 3537
enz@@ 3532
ei 3526
wi@@ 3520
enti 3519
ten@@ 3492
ad 3475
her@@ 3467
te, 3467
Ein@@ 3459
etto 3432
ast@@ 3424
bei 3416
gr@@ 3416
ff@@ 3407
pl@@ 3404
ru@@ 3393
et 3382
ech@@ 3380
port@@ 3371
fi@@ 3363
met@@ 3353
rit@@ 3347
sion@@ 3347
dann 3342
ge 3332
ste 3326
mich 3324
solo 3318
fare 3315
den@@ 3314
y 3285
bil@@ 3284
ta 3278
tiv@@ 3275
ai 3271
su 3249
persone 3248
er, 3239
un'@@ 3214
noch 3213
far@@ 3212
sto 3209
Il 3201
amm@@ 3198
geb@@ 3195
also 3192
ak@@ 3190
fic@@ 3188
e: 3184
hat 3179
ali 3178
sta 3169
z 3168
Ch@@ 3159
2@@ 3154
U@@ 3144
quello 3132
hier 3124
Menschen 3122
fl@@ 3119
werden 3118
ich@@ 3111
inn@@ 3110
so@@ 3090
ito 3080
dieser 3078
u 3070
ar 3052
dere 3047
ob@@ 3045
ed 3039
gibt 3030
me 3030
3@@ 3024
anz@@ 3019
nen 3018
pa@@ 3008
tu@@ 3003
uto 3002
ser@@ 2994
komm@@ 2983
min@@ 2980
esso 2978
ch 2975
Ar@@ 2965
nach 2948
Wenn 2925
ort@@ 2920
mer@@ 2898
ven@@ 2892
mon@@ 2890
edi@@ 2883
etwas 2880
no@@ 2879
wir@@ 2858
tutti 2854
fer@@ 2852
modo 2838
entr@@ 2836
tutto 2834
ment@@ 2827
enza 2822
pens@@ 2816
cos@@ 2804
leg@@ 2801
ezz@@ 2792
kann 2778
vor 2752
indi@@ 2750
je@@ 2738
nella 2733
eu@@ 2729
ico 2728
aff@@ 2723
ah@@ 2713
gen 2713
pen@@ 2689
ischen 2688
sia 2680
siamo 2679
wer@@ 2670
ori@@ 2665
one 2664
wird 2658
ament@@ 2654
denk@@ 2641
liche 2641
Ges@@ 2638
Pro@@ 2631
pres@@ 2616
ische 2615
mehr 2611
ra 2602
gra@@ 2601
va 2600
men 2599
spr@@ 2595
sar@@ 2593
Gr@@ 2591
ik@@ 2591
dov@@ 2590
zion@@ 2589
anni 2561
ire 2561
pot@@ 2558
contr@@ 2551
ck@@ 2522
isch@@ 2512
all'@@ 2500
mir 2494
ento 2489
questi 2487
ll@@ 2475
acc@@ 2474
mia 2472
zz@@ 2472
ve 2465
queste 2464
0 2453
eben 2444
enn@@ 2443
zum 2436
dr@@ 2432
habe 2429
lichen 2424
mio 2420
eines 2417
fatto 2415
oh@@ 2410
s, 2401
hat@@ 2399
ora 2392
eich@@ 2387
ende 2380
tut@@ 2379
prog@@ 2366
ero 2360
off@@ 2358
.@@ 2357
". 2356
all 2356
durch 2340
ft 2340
stato 2336
5@@ 2334
or 2327
car@@ 2324
te. 2320
diver@@ 2319
hei@@ 2312
gel@@ 2310
des@@ 2305
form@@ 2304
qual@@ 2302
Di@@ 2300
quest@@ 2293
bu@@ 2290
Be@@ 2283
utz@@ 2273
En@@ 2258
Questo 2258
nuov@@ 2249
gew@@ 2247
anti 2244
ebbe 2242
mus@@ 2236
po 2236
mal 2235
mal@@ 2231
e? 2228
imm@@ 2227
person@@ 2227
Ihnen 2226
h 2223
weil 2221
eren 2220
ex@@ 2218
cose 2216
sione 2216
weg@@ 2213
00 2208
mach@@ 2203
sin@@ 2199
woll@@ 2195
5 2185
bei@@ 2184
TED 2183
hr@@ 2183
due 2180
parte 2176
4@@ 2175
Er 2174
chi 2174
azion@@ 2171
ungs@@ 2168
ation@@ 2156
cas@@ 2156
eff@@ 2156
gli@@ 2155
ina 2155
itt@@ 2154
zeig@@ 2153
Au@@ 2145
spi@@ 2140
soll@@ 2137
ine 2132
wirklich 2131
de, 2129
le@@ 2120
Welt 2119
wen@@ 2117
cap@@ 2115
unsere 2099
immer 2098
o? 2094
Pr@@ 2093
migli@@ 2091
ogni 2089
wel@@ 2087
ern 2085
ont@@ 2085
mat@@ 2079
er. 2077
Vor@@ 2072
ale. 2071
unter@@ 2068
viel 2068
aggi@@ 2065
trov@@ 2064
ari@@ 2055
prima 2053
best@@ 2051
endo 2041
abil@@ 2038
den, 2036
d, 2035
vit@@ 2030
diff@@ 2016
dis@@ 2012
cambi@@ 2009
meine 2006
inizi@@ 2005
dal 2004
dieses 2004
wur@@ 2003
ten, 1999
parl@@ 1998
bar@@ 1993
fon@@ 1993
eit 1989
?" 1987
ca 1986
ihre 1979
hin@@ 1977
beg@@ 1976
giorn@@ 1976
Ge@@ 1970
' 1968
Was 1967
ist. 1962
8@@ 1956
mol@@ 1955
mondo 1952
gest@@ 1950
geg@@ 1946
eri@@ 1937
A 1935
keit 1932
diesem 1928
cu@@ 1927
lavor@@ 1925
oi 1924
pren@@ 1924
quell@@ 1924
ation 1923
potr@@ 1923
sier@@ 1923
sehen 1919
keine 1915
Per@@ 1914
oni 1905
ung, 1905
fu@@ 1904
tra@@ 1904
tra 1902
gem@@ 1901
alt@@ 1897
int@@ 1891
ale, 1888
Bil@@ 1887
ander@@ 1884
succ@@ 1881
sich@@ 1880
sent@@ 1878
reg@@ 1877
ali@@ 1876
gu@@ 1875
interess@@ 1874
s. 1873
schi@@ 1869
sul 1865
ent 1864
ord@@ 1862
... 1861
etr@@ 1860
sap@@ 1857
comp@@ 1850
lei@@ 1849
ann 1846
evo 1839
heit 1830
stra@@ 1827
Quindi 1826
diesen 1821
ari 1818
dove 1814
ert 1806
sit@@ 1805
viele 1802
Or@@ 1801
; 1798
rem@@ 1797
tem@@ 1795
Se 1785
hi@@ 1784
Zu@@ 1782
are. 1778
hal@@ 1777
lan@@ 1777
pass@@ 1776
de. 1775
orn@@ 1772
Talk 1770
aut@@ 1767
almente 1760
prim@@ 1758
verso 1757
9@@ 1756
den. 1756
degli 1755
sein 1755
import@@ 1754
mostr@@ 1752
und@@ 1752
anza 1750
zioni 1745
mu@@ 1744
gesch@@ 1743
kt 1741
Si@@ 1737
mili@@ 1731
prov@@ 1728
poi 1726
qualcosa 1726
en? 1725
azioni 1721
wurde 1720
anni@@ 1715
Subtitles 1714
Transcript: 1714
Wi@@ 1714
Der 1711
pos@@ 1707
lin@@ 1705
o: 1704
d. 1699
6@@ 1698
versu@@ 1688
auen 1683
tere 1683
Cos@@ 1681
erk@@ 1681
eut@@ 1680
tre 1680
wo 1678
ole 1676
19@@ 1673
quel 1672
dent@@ 1671
och 1668
Also 1665
noi 1661
amento 1657
medi@@ 1657
Aus@@ 1656
comun@@ 1652
vogli@@ 1652
ok@@ 1651
af@@ 1647
dic@@ 1647
dir@@ 1646
es, 1644
tur@@ 1644
sulla 1643
olo 1640
chte 1638
For@@ 1637
leb@@ 1636
pol@@ 1636
sco@@ 1634
ung. 1634
mai 1633
bambin@@ 1632
andere 1631
lass@@ 1625
et, 1624
ide@@ 1623
zur 1623
onn@@ 1617
ott@@ 1615
zwei 1614
cin@@ 1613
olog@@ 1612
Li@@ 1611
elle 1611
etti@@ 1609
ihr 1609
res@@ 1607
dur@@ 1605
piccol@@ 1604
uman@@ 1601
cont@@ 1599
dom@@ 1598
uti@@ 1597
tig 1596
ici 1590
tras@@ 1590
! 1588
quella 1587
divent@@ 1586
L'@@ 1581
Ent@@ 1580
Jahr@@ 1579
Leben 1579
einfach 1578
7@@ 1573
haben, 1573
possiamo 1573
kann@@ 1572
E' 1570
arb@@ 1570
atur@@ 1568
ato. 1566
ava 1566
Leute 1564
schl@@ 1564
sci@@ 1563
Wie 1562
tz@@ 1559
art@@ 1555
fol@@ 1552
lang@@ 1551
mm@@ 1549
etti 1547
Kon@@ 1539
I 1538
ne@@ 1538
x@@ 1536
rac@@ 1534
anderen 1533
anti@@ 1530
mit@@ 1529
eig@@ 1528
Kin@@ 1526
pf@@ 1526
Ma@@ 1523
n, 1523
jetzt 1522
chiam@@ 1520
ehr@@ 1520
iamo 1520
nostro 1517
vostr@@ 1517
sul@@ 1516
ener@@ 1515
ino 1515
bin@@ 1514
vedere 1514
possi@@ 1513
ancora 1509
schaf@@ 1507
etz@@ 1505
Fr@@ 1503
letz@@ 1502
bis 1500
mente 1496
post@@ 1495
gi 1493
Milli@@ 1490
are, 1490
sor@@ 1490
ini 1487
be 1486
sa@@ 1483
vo 1482
Reg@@ 1481
seh@@ 1481
an, 1480
Re@@ 1479
essi@@ 1479
ss@@ 1478
stess@@ 1478
Leb@@ 1475
so, 1475
sal@@ 1474
bring@@ 1473
ici@@ 1469
Zeit 1468
dalla 1467
ene 1467
ve@@ 1465
Str@@ 1464
sen@@ 1461
ato, 1456
Wel@@ 1454
tern@@ 1454
pon@@ 1453
steh@@ 1451
ami@@ 1449
das@@ 1447
bes@@ 1444
meno 1442
n. 1441
nach@@ 1441
Bei@@ 1440
ganz@@ 1440
under@@ 1440
soci@@ 1438
brau@@ 1436
ens 1435
fa 1435
Ne@@ 1432
do. 1431
azi@@ 1430
eva 1430
son@@ 1430
frag@@ 1429
do, 1428
Art 1426
Per 1426
vita 1425
isch 1418
fos@@ 1416
spiel@@ 1416
se@@ 1413
enschaf@@ 1412
nor@@ 1409
coll@@ 1408
kei@@ 1408
altr@@ 1406
fac@@ 1406
wiss@@ 1406
ellen 1405
fahr@@ 1404
Mar@@ 1403
aten 1400
etw@@ 1400
quanto 1400
qui 1400
sa 1398
bin 1397
glich@@ 1397
grande 1396
mor@@ 1396
chten 1395
neh@@ 1395
", 1393
ft@@ 1391
gut@@ 1390
Sono 1387
no 1386
ih@@ 1385
semplic@@ 1385
Jahren 1383
part@@ 1383
damit 1382
Y@@ 1380
ulti@@ 1380
kommen 1379
nostra 1379
ob 1379
suo 1379
abb@@ 1378
mei@@ 1378
gente 1373
Questa 1367
sen 1367
unser@@ 1366
alizz@@ 1365
d'@@ 1365
Ihr@@ 1363
erano 1362
ola 1361
gan@@ 1358
omm@@ 1358
facci@@ 1357
et. 1351
men@@ 1351
Frag@@ 1350
asi 1350
ing 1350
eil@@ 1349
bile 1346
woh@@ 1344
ra, 1342
arbeit@@ 1340
inv@@ 1340
dies 1339
altro 1337
ran@@ 1335
sind, 1333
posi@@ 1328
konn@@ 1320
Ab@@ 1319
davvero 1319
evano 1316
Mensch@@ 1311
ost@@ 1310
sua 1310
Man 1307
lie@@ 1306
Ho 1305
Sp@@ 1304
alles 1304
ken 1304
sempre 1304
guar@@ 1301
Dinge 1300
cit@@ 1300
dig@@ 1300
ten. 1300
pre@@ 1299
eden@@ 1296
pun@@ 1296
costru@@ 1295
mar@@ 1292
eln 1291
eten 1288
heraus@@ 1286
vere 1285
kon@@ 1284
hatte 1283
du 1281
Jahre 1280
tempo 1279
ick@@ 1278
acqu@@ 1277
sel@@ 1274
Ide@@ 1273
ini@@ 1273
waren 1273
nell'@@ 1271
peri@@ 1271
Wiss@@ 1268
ho@@ 1267
hab@@ 1266
ust@@ 1266
ahr@@ 1265
mom@@ 1264
zusamm@@ 1264
problem@@ 1263
2 1261
en: 1261
hatt@@ 1261
mein 1260
Gl@@ 1255
eg 1255
onen 1255
Ci 1254
bero 1254
ologi@@ 1252
erst@@ 1248
rag@@ 1248
schein@@ 1246
Sy@@ 1245
gran@@ 1244
glaub@@ 1242
nelle 1240
avi@@ 1237
10 1236
pri@@ 1235
sind. 1235
bess@@ 1227
ehen 1226
iti@@ 1225
volta 1225
rei 1223
fil@@ 1221
ogli@@ 1221
esempi@@ 1220
denn 1219
tutte 1219
nah@@ 1218
selbst 1218
vielleicht 1218
gener@@ 1217
Com@@ 1216
compl@@ 1213
igli@@ 1212
end 1211
pas@@ 1211
senza 1211
utt@@ 1210
vent@@ 1210
Abbiamo 1209
halt@@ 1209
nei 1209
possono 1209
a? 1205
evol@@ 1204
jem@@ 1204
ben 1203
aggio 1202
lieg@@ 1202
rel@@ 1202
ram@@ 1201
haben. 1200
sehen, 1199
can@@ 1198
enzi@@ 1196
schaft 1196
enden 1195
organ@@ 1195
Proz@@ 1192
amer@@ 1191
che, 1191
econ@@ 1190
otto 1188
os 1187
halb 1186
stu@@ 1186
20@@ 1184
conos@@ 1184
itu@@ 1184
nicht@@ 1183
w 1183
ete, 1182
stri@@ 1181
ogra@@ 1177
esi 1175
secon@@ 1173
pubbl@@ 1172
cent@@ 1171
over@@ 1170
uom@@ 1170
Si 1168
vel@@ 1168
cerc@@ 1167
eht 1167
icol@@ 1167
cam@@ 1165
machen 1165
qualche 1165
wahr@@ 1163
ab 1162
war, 1162
.000 1161
gono 1157
p 1156
uni@@ 1156
wieder 1156
Le 1154
amente, 1152
ganz 1152
Bi@@ 1151
ch, 1151
realt@@ 1149
ese 1148
bas@@ 1147
% 1143
proprio 1143
werden. 1140
Auf@@ 1138
anzi@@ 1138
avere 1138
igen 1138
get@@ 1136
bet@@ 1134
Mo@@ 1132
ha@@ 1131
reb@@ 1131
ahl@@ 1130
ank@@ 1129
test@@ 1126
,@@ 1125
ativ@@ 1124
emente 1124
ved@@ 1122
El@@ 1118
alen 1118
ub@@ 1118
dopo 1117
einige 1117
acci@@ 1116
funzion@@ 1116
ag 1115
forma@@ 1115
Th@@ 1114
b 1114
bra@@ 1113
ihnen 1113
nostri 1113
stata 1112
altri 1111
Hier 1110
anto 1110
ell 1110
dire 1109
jek@@ 1109
zeu@@ 1109
rat@@ 1108
nell@@ 1107
schon 1106
egli@@ 1105
ica. 1103
agli@@ 1102
eci@@ 1102
ica, 1102
quindi 1101
studi@@ 1100
agn@@ 1098
besch@@ 1098
mis@@ 1098
muss 1098
asp@@ 1097
Diese 1095
Ih@@ 1095
tratt@@ 1095
heute 1094
tipo 1094
Come 1093
esse 1093
Bl@@ 1092
voi 1092
Grazi@@ 1091
Wei@@ 1090
eigen@@ 1088
natur@@ 1088
por@@ 1088
rest@@ 1088
not@@ 1086
signi@@ 1086
cur@@ 1085
viel@@ 1084
Um@@ 1083
unque 1081
weiter@@ 1081
Ec@@ 1080
geht 1080
neu@@ 1080
weise 1080
Unter@@ 1079
Dank@@ 1077
cres@@ 1076
Ri@@ 1074
aiut@@ 1073
teil@@ 1073
ani 1072
atti@@ 1071
setz@@ 1070
passier@@ 1068
schaff@@ 1068
citt@@ 1067
nicht, 1064
tun@@ 1064
schen 1063
capi@@ 1061
vello 1061
ache 1059
ro 1059
ragazz@@ 1058
Gel@@ 1057
Arb@@ 1054
Ber@@ 1054
rank@@ 1053
obbiamo 1052
Indi@@ 1051
paar 1050
Mon@@ 1048
an. 1048
ente. 1047
Stu@@ 1046
Ed 1044
dav@@ 1044
ihn 1044
fas@@ 1043
Uni@@ 1042
seine 1042
guard@@ 1040
to, 1040
50 1039
Gehir@@ 1038
cal@@ 1038
maggi@@ 1038
sost@@ 1038
Quando 1037
age 1036
ren@@ 1036
gn@@ 1034
iss@@ 1034
y, 1033
Fre@@ 1032
molti 1032
schw@@ 1031
meiner 1030
ep@@ 1028
fri@@ 1028
ologie 1028
ede 1027
idea 1026
cominci@@ 1025
andel@@ 1024
stru@@ 1024
pi 1023
arriv@@ 1022
ello 1022
produ@@ 1022
200@@ 1021
Su@@ 1021
don@@ 1021
at 1020
fen 1020
ihr@@ 1020
attra@@ 1019
sondern 1019
tion@@ 1019
wichtig@@ 1019
circa 1017
los@@ 1017
Mi 1014
Wass@@ 1013
gru@@ 1013
issi@@ 1012
stesso 1012
unter 1012
present@@ 1011
fel@@ 1007
ultur@@ 1006
unserer 1006
det 1002
po' 1002
conc@@ 1000
wissen 998
Des@@ 997
stat@@ 997
cell@@ 996
inci@@ 996
ner@@ 996
Vi@@ 995
erz@@ 995
propr@@ 995
serv@@ 994
altra 993
svilu@@ 991
hrend 990
kom@@ 990
negli 989
Als 988
Spi@@ 988
amp@@ 987
bisogno 986
drei 986
einf@@ 986
Ein 985
assi@@ 985
fatt@@ 985
tel@@ 984
tun 982
Bu@@ 981
st, 980
4 979
impar@@ 978
sistema 978
viene 978
k, 977
storia 977
lor@@ 976
te@@ 976
schn@@ 975
sei 973
vic@@ 972
Problem@@ 971
Techn@@ 971
bri@@ 970
ness@@ 970
tecnologi@@ 969
ico. 966
20 964
Her@@ 964
Nach@@ 964
abbi@@ 964
entwick@@ 964
insi@@ 964
avo 963
denen 962
imp@@ 962
irgend@@ 962
dall'@@ 961
zwischen 959
punto 957
durch@@ 956
attr@@ 955
neue 955
3 953
Medi@@ 951
vom 951
iert 950
ling@@ 950
ult@@ 950
Viel@@ 949
ationen 949
ricer@@ 948
zwei@@ 948
ige 947
sti@@ 947
Sti@@ 946
diamo 945
glob@@ 945
lung@@ 945
avano 944
dort 944
Po@@ 943
chen, 941
eder@@ 941
sam@@ 940
fun@@ 939
as 938
dett@@ 938
fall@@ 938
segu@@ 938
Amer@@ 937
ur 937
chte, 936
ner 934
sein. 934
versteh@@ 934
altre 932
Ph@@ 931
gut 931
lavoro 931
rebbe 931
izz@@ 930
mitt@@ 929
To@@ 928
condi@@ 927
qualc@@ 926
ster@@ 926
wus@@ 924
iger 923
ambi@@ 922
entlich 922
fam@@ 922
bedeut@@ 921
ati. 919
beh@@ 919
aci@@ 916
genau 916
Par@@ 914
abi@@ 914
r, 914
tion 914
iment@@ 913
iti 913
laub@@ 913
schei@@ 913
zier@@ 912
Beh@@ 911
oo@@ 910
lasci@@ 909
prot@@ 909
proc@@ 907
Ding@@ 906
lich, 906
mentre 906
Quest@@ 905
ali. 905
ator@@ 905
aum 905
es. 905
mac@@ 904
Intern@@ 903
wirk@@ 903
Kinder 902
polit@@ 902
Un 898
azione. 896
funktion@@ 896
mensch@@ 896
num@@ 895
acht 894
ieren 894
ort 894
rius@@ 892
voll@@ 892
abor@@ 891
andare 891
mento 891
Jahr 890
So 890
Nun, 889
essen 888
nun 888
sein, 887
ler 885
attiv@@ 884
ente, 882
uti 882
las@@ 880
verschi@@ 880
vis@@ 880
sagt@@ 879
sicur@@ 879
ali, 878
atter@@ 878
werden, 877
est 876
8 875
Geschichte 875
dello 875
fica 875
wor@@ 873
ai@@ 872
sopr@@ 872
werde 872
alcuni 871
gioc@@ 871
ite 870
ohne 870
sembr@@ 870
sogar 870
fal@@ 869
ph@@ 869
Fl@@ 868
anim@@ 867
kein 867
cono 866
etzt 866
ihren 866
War@@ 865
stiamo 865
pros@@ 864
itz@@ 863
Ex@@ 862
gerade 861
gh@@ 861
val@@ 861
za 861
acht@@ 859
unser 859
Dies 858
Teil 857
ano. 857
fine 857
gab@@ 857
aveva 856
ach 855
pt@@ 854
a: 853
ette 852
Tr@@ 850
bell@@ 849
immagin@@ 849
creare 848
ati, 847
problema 847
dec@@ 846
m, 845
rob@@ 845
zione. 845
fat@@ 844
piac@@ 844
unden 844
emo 843
on, 843
ure 843
Ger@@ 842
vu@@ 842
continu@@ 841
trag@@ 838
eggi@@ 837
kann. 837
stem@@ 837
insegn@@ 835
1 834
nostr@@ 829
plic@@ 819
pu@@ 819
eil 818
gib@@ 815
vo@@ 814
Geschi@@ 807
6 788
bis@@ 783
immag@@ 780
segn@@ 761
TE@@ 754
nich@@ 752
ca@@ 737
7 733
[@@ 726
000 724
stor@@ 721
un, 716
que 715
x 712
ogn@@ 708
uns@@ 708
zur@@ 706
dop@@ 701
alcun@@ 696
selb@@ 681
chtig@@ 669
cir@@ 646
dell@@ 638
sistem@@ 635
wie@@ 635
azz@@ 632
dern 626
lav@@ 622
v 619
arri@@ 607
] 604
nu@@ 603
sig@@ 576
echn@@ 570
9 565
enn 564
neg@@ 539
cc@@ 537
deut@@ 534
meh@@ 532
au 531
Gra@@ 527
scri@@ 527
tecn@@ 518
vero 496
zus@@ 494
ber 466
tit@@ 465
pers@@ 462
alc@@ 461
ande 451
oro 451
!@@ 449
sem@@ 441
sic@@ 423
dies@@ 413
..@@ 410
S 407
Mil@@ 394
sog@@ 392
ck 391
c 387
ats@@ 380
zw@@ 378
O 377
pic@@ 376
les 369
elleicht 361
Geh@@ 359
aub@@ 357
?@@ 354
seg@@ 351
sein@@ 331
bisogn@@ 321
ogi@@ 321
ade 304
entw@@ 298
Tran@@ 286
X@@ 286
ktion@@ 285
C 284
eute 278
gend@@ 265
V 260
ancor@@ 251
D 249
%@@ 239
&@@ 235
/@@ 228
ier 225
Tal@@ 213
T 211
;@@ 210
ensch@@ 199
esem@@ 196
sempr@@ 181
ahr 179
bam@@ 177
:@@ 154
]@@ 141
amit 139
Q@@ 134
inu@@ 133
pub@@ 129
Sub@@ 128
L 115
X 114
P 113
B 111
tec@@ 102
q@@ 101
M 94
N 94
G 90
R 76
U 68
K 64
$@@ 62
$ 47
svi@@ 46
H 45
_@@ 45
eicht 41
F 39
q 39
@@@ 38
W 37
biamo 37
= 31
/ 28
+ 26
Y 26
Q 24
) 23
j 23
[ 22
#@@ 21
+@@ 20
J 20
Z 20
*@@ 12
(@@ 11
_ 7
=@@ 6
^ 6
indi 4
* 3
@ 3
`@@ 3
blem@@ 3
@@ 2
` 2
pt: 2
^@@ 1
