di 56942
in 47924
che 47402
e 45881
die 42730
und 38916
a 31156
der 29410
la 27719
un 25921
il 25387
zu 22556
das 21929
es 20976
per 20108
ist 19499
i 19293
wir 18622
ich 18546
una 17104
non 15520
ein 14889
Sie 14871
le 14841
sie 14806
den 14345
von 14123
. 14005
eine 13890
dass 13662
e, 13655
, 13233
o 13164
Und 12337
en, 12228
e. 12124
si 12108
er 12063
en 11999
E 11709
nicht 11604
mit 11216
sono 11071
da 11027
en. 10778
t 10299
er@@ 10036
del 9883
are 9751
auf 9684
wie 9387
"@@ 9373
o, 9366
Ich 9289
o. 9228
con 9209
come 9197
sich 8945
s@@ 8894
a. 8822
a, 8709
-- 8619
l'@@ 8523
ver@@ 7930
della 7776
ato 7706
um 7607
an 7524
man 7509
t, 7435
ci 7433
S@@ 7425
questo 7383
so 7360
s 7281
als 7276
-@@ 7242
se 7235
in@@ 7225
al 7094
Das 6878
en@@ 6798
te 6773
ma 6685
t. 6631
t@@ 6626
an@@ 6532
Es 6437
dem 6413
ha 6344
diese 6270
im 6236
sind 6218
was 6176
einen 6107
ten 6047
Wir 5916
st@@ 5906
l@@ 5823
ung 5804
ri@@ 5784
nel 5772
k@@ 5770
B@@ 5726
wenn 5692
f@@ 5530
d@@ 5525
di@@ 5520
M@@ 5504
haben 5461
lo 5363
r@@ 5350
T@@ 5342
: 5340
? 5338
o@@ 5336
war 5303
des 5269
ar@@ 5247
b@@ 5242
g@@ 5224
ano 5193
uns 5175
mi 5159
e@@ 5020
n@@ 5016
dei 4997
m@@ 4982
un@@ 4963
D@@ 4869
oder 4845
gli 4838
R@@ 4796
p@@ 4757
delle 4703
Ma 4682
H@@ 4637
einer 4633
i@@ 4588
einem 4574
L@@ 4539
aber 4537
h@@ 4521
or@@ 4489
cosa 4469
molto 4443
ho 4413
on@@ 4411
Die 4395
auch 4329
al@@ 4324
K@@ 4318
questa 4316
aus 4314
Aber 4313
- 4291
cui 4278
era 4270
ate 4258
alla 4191
essere 4181
ale 4163
alle 4126
u@@ 4121
ent@@ 4083
abbiamo 4076
ein@@ 4017
N@@ 3985
c@@ 3984
nur 3976
at@@ 3944
A@@ 3921
am@@ 3900
C@@ 3890
et@@ 3877
F@@ 3876
sch@@ 3876
E@@ 3875
w@@ 3854
ist, 3844
es@@ 3819
sehr 3808
In 3800
z@@ 3758
el@@ 3756
loro 3752
be@@ 3750
anche 3731
P@@ 3727
quando 3718
Non 3637
i, 3622
a@@ 3592
aus@@ 3574
ab@@ 3568
hanno 3565
dell'@@ 3537
W@@ 3526
ati 3492
ad 3475
Ver@@ 3454
it@@ 3439
ata 3418
La 3393
dann 3342
mich 3324
solo 3318
fare 3315
re@@ 3306
G@@ 3269
su 3249
persone 3248
noch 3213
ge@@ 3206
i. 3203
also 3192
hat 3179
si@@ 3178
ne 3173
v@@ 3172
quello 3132
hier 3124
Menschen 3122
werden 3118
ando 3115
azione 3111
vi 3095
Il 3080
dieser 3078
Sch@@ 3073
ai 3034
gibt 3030
ch@@ 3020
de 2991
nach 2948
Wenn 2925
ag@@ 2897
etwas 2880
li@@ 2861
tutti 2854
ol@@ 2852
bei 2838
modo 2838
ed 2828
St@@ 2818
An@@ 2805
um@@ 2800
pi@@ 2782
kann 2778
auf@@ 2768
io 2745
and 2734
nella 2733
y@@ 2710
ere 2709
tutto 2697
av@@ 2681
ur@@ 2681
uno 2680
wird 2658
con@@ 2617
mehr 2611
tr@@ 2599
J@@ 2580
anni 2561
sia 2550
y 2541
ore 2539
." 2538
d 2519
em@@ 2519
is@@ 2506
O@@ 2502
ic@@ 2496
mir 2494
questi 2487
ti@@ 2480
er, 2476
queste 2464
ti 2446
ungen 2436
zum 2436
habe 2429
all@@ 2424
mio 2420
un'@@ 2417
fatto 2415
ut@@ 2398
ap@@ 2396
om@@ 2390
au@@ 2364
ci@@ 2363
ali 2358
stato 2336
am 2332
ica 2323
vi@@ 2313
ische 2312
os@@ 2303
sp@@ 2301
el 2296
ul@@ 2276
us@@ 2260
lich 2259
Questo 2258
" 2257
per@@ 2254
et 2249
durch 2228
Ihnen 2226
eg@@ 2223
weil 2221
cose 2216
k 2212
de@@ 2211
ischen 2209
as@@ 2207
mia 2206
vor 2197
bi@@ 2189
ac@@ 2187
and@@ 2185
TED 2183
due 2180
'@@ 2178
parte 2176
Er 2174
to 2167
ete 2160
est@@ 2144
amente 2136
wirklich 2131
te, 2121
Welt 2119
ad@@ 2113
all'@@ 2099
unsere 2099
immer 2098
ogni 2089
ra@@ 2083
V@@ 2082
e? 2080
gi@@ 2070
der@@ 2069
viel 2068
ter@@ 2066
par@@ 2059
ot@@ 2053
prima 2053
s, 2053
ett@@ 2052
im@@ 2036
ir@@ 2036
vor@@ 2008
g 2006
meine 2006
dal 2004
dieses 2004
ger@@ 2004
ber@@ 1993
ro@@ 1980
ihre 1979
str@@ 1976
da@@ 1975
zu@@ 1971
ente 1969
ist. 1962
er. 1956
mondo 1952
e: 1938
mi@@ 1935
Z@@ 1930
diesem 1928
I@@ 1927
ang@@ 1920
keine 1915
co@@ 1911
ung, 1905
tra 1902
po@@ 1899
siamo 1899
ico 1880
re 1874
ale. 1873
sul 1865
liche 1854
In@@ 1849
ie 1849
ern 1844
on 1843
Quindi 1826
diesen 1821
sehen 1821
dove 1814
eines 1813
her@@ 1808
com@@ 1802
viele 1802
su@@ 1801
ant@@ 1800
ale, 1799
ma@@ 1794
Was 1793
me 1792
Se 1785
ge 1783
are. 1778
fi@@ 1772
Talk 1770
op@@ 1763
sten 1762
degli 1755
chi@@ 1752
ist@@ 1747
gen 1739
ell@@ 1735
amo 1734
s. 1730
poi 1726
qualcosa 1726
en? 1725
wurde 1720
ig@@ 1718
Ein@@ 1716
Subtitles 1714
Transcript: 1714
Der 1711
enti 1711
sta 1705
zi@@ 1700
ec@@ 1682
quel 1672
li 1668
Also 1665
noi 1661
sein 1649
ei@@ 1647
ste 1646
sulla 1643
att@@ 1639
Er@@ 1637
eb@@ 1636
col@@ 1635
sc@@ 1635
ung. 1634
mai 1633
ass@@ 1632
andere 1631
il@@ 1630
sol@@ 1624
ungs@@ 1623
zur 1623
chen 1620
zwei 1614
den@@ 1612
ihr 1609
j@@ 1609
ing@@ 1602
kl@@ 1597
pr@@ 1594
ende 1589
gen@@ 1588
quella 1587
st 1587
Leben 1579
einfach 1578
ed@@ 1575
haben, 1573
possiamo 1573
E' 1570
ato. 1566
Leute 1564
te. 1564
lichen 1561
chi 1560
m 1548
fer@@ 1546
do 1543
n 1542
wo 1540
I 1538
anderen 1533
ten, 1530
jetzt 1522
nostro 1517
vedere 1514
ancora 1509
ess@@ 1504
bis 1500
eren 1498
Aus@@ 1493
are, 1490
one 1490
ito 1489
L'@@ 1482
ono 1482
leg@@ 1481
all 1477
ris@@ 1477
ung@@ 1476
o? 1475
cht 1474
pl@@ 1474
dr@@ 1471
Zeit 1468
dalla 1467
3@@ 1462
ora 1458
ato, 1456
ek@@ 1454
ten@@ 1453
es, 1447
cht@@ 1443
ev@@ 1440
gel@@ 1440
Wie 1438
ce 1436
fa 1435
h 1435
end@@ 1428
Art 1426
Per 1426
vita 1425
.@@ 1418
isch 1418
lu@@ 1417
ter 1417
zione 1409
ia 1404
qu@@ 1401
inter@@ 1400
quanto 1400
qui 1400
cor@@ 1399
bin 1397
grande 1396
vol@@ 1395
ens@@ 1394
anz@@ 1391
ann@@ 1389
Sono 1387
azioni 1384
Jahren 1383
damit 1382
Al@@ 1379
nostra 1379
suo 1379
". 1373
gente 1373
em 1372
2@@ 1371
anno 1371
ta 1371
ak@@ 1369
Questa 1367
ori 1365
dis@@ 1356
enza 1353
de, 1348
U@@ 1344
og@@ 1341
dies 1339
Di@@ 1336
pro@@ 1335
car@@ 1334
dar@@ 1333
sind, 1333
co 1326
cre@@ 1323
endo 1321
Ab@@ 1319
davvero 1319
elle 1316
cer@@ 1313
ast@@ 1311
sua 1310
Man 1307
Ho 1305
alles 1304
fr@@ 1304
sempre 1304
Dinge 1300
ert 1300
ante 1296
man@@ 1296
ni@@ 1296
o: 1296
fin@@ 1294
mo@@ 1289
hatte 1283
du 1281
Jahre 1280
tempo 1279
waren 1273
fl@@ 1271
nell'@@ 1271
ici 1270
ino 1269
eh@@ 1267
ob 1267
no@@ 1263
gesch@@ 1260
mein 1260
alt@@ 1257
ation 1257
Ci 1254
d'@@ 1243
ava 1242
ero 1240
nelle 1240
10 1236
sind. 1235
et. 1233
ier@@ 1233
an, 1232
br@@ 1232
gr@@ 1231
hin@@ 1227
ser@@ 1225
volta 1225
pass@@ 1221
et, 1220
denn 1219
tutte 1219
selbst 1218
vielleicht 1218
ven@@ 1215
oc@@ 1211
senza 1211
Abbiamo 1209
nei 1209
possono 1209
lich@@ 1207
a? 1205
lei@@ 1205
altro 1202
tre 1202
va 1202
A 1201
haben. 1200
sehen, 1199
ca 1195
enden 1195
l 1192
che, 1191
... 1188
Un@@ 1185
far@@ 1182
Si 1168
gest@@ 1167
machen 1165
qualche 1165
war, 1162
pens@@ 1160
Vor@@ 1159
wieder 1156
Le 1154
ganz 1152
Ar@@ 1149
rei@@ 1149
ef@@ 1147
erano 1146
proprio 1143
werden. 1140
ire 1139
avere 1138
bu@@ 1135
ine 1130
ric@@ 1128
ff@@ 1120
iamo 1118
dopo 1117
einige 1117
amento 1116
end 1116
ihnen 1113
nostri 1113
stata 1112
altri 1111
Hier 1110
dire 1109
for@@ 1107
! 1106
schon 1106
quindi 1101
n, 1100
muss 1098
Diese 1095
port@@ 1095
rit@@ 1095
heute 1094
tipo 1094
voi 1092
ina 1091
uto 1090
mar@@ 1089
?" 1086
ken 1084
geht 1080
wer@@ 1076
f 1075
bar@@ 1074
ari 1071
nicht, 1064
ati@@ 1062
min@@ 1053
edi@@ 1051
paar 1050
ob@@ 1049
or 1049
an. 1048
Ed 1044
ihn 1044
seine 1042
Qu@@ 1039
Quando 1037
4@@ 1035
Be@@ 1033
molti 1032
meiner 1030
ander@@ 1029
ges@@ 1028
unter@@ 1028
ov@@ 1026
mal 1025
sor@@ 1024
200@@ 1021
; 1021
ik@@ 1020
sondern 1019
circa 1017
Mi 1014
aff@@ 1014
le@@ 1014
stesso 1012
unter 1012
ch 1011
ene 1009
enn@@ 1008
unserer 1006
zz@@ 1006
ica, 1002
po' 1002
ori@@ 1001
wissen 998
ica. 997
r 997
de. 993
Come 991
bl@@ 991
ah@@ 990
negli 989
Als 988
bisogno 986
drei 986
Ein 985
n. 984
5 983
amm@@ 982
tun 982
1@@ 981
Sp@@ 980
sistema 978
viene 978
schl@@ 977
storia 977
sei 973
anti 972
bil@@ 968
acc@@ 967
tras@@ 966
20 964
meno 963
denen 962
dall'@@ 961
ben@@ 960
dov@@ 959
zwischen 959
pf@@ 958
eu@@ 957
punto 957
en: 956
", 955
neue 955
etto 954
vom 951
ok@@ 950
Bi@@ 949
d, 947
geb@@ 947
gew@@ 945
dort 944
Re@@ 943
nen 941
wei@@ 940
ech@@ 939
p 937
kommen 936
almente 935
sein. 934
oll@@ 933
altre 932
gut 931
lavoro 931
mor@@ 929
mon@@ 928
men 924
ali@@ 922
Zu@@ 920
d. 919
form@@ 916
genau 916
ern@@ 915
Par@@ 914
eln 914
schi@@ 908
geh@@ 907
mentre 906
mo 906
ali. 905
es. 905
20@@ 903
7@@ 903
Kinder 902
spr@@ 899
Un 898
ten. 897
azione. 896
eten 894
off@@ 894
sione 894
andare 891
ru@@ 891
Jahr 890
So 890
Nun, 889
nun 888
ran@@ 888
sein, 887
st, 886
6@@ 885
pot@@ 880
heit 878
aut@@ 877
werden, 877
person@@ 876
Geschichte 875
mal@@ 875
ment@@ 875
ra 875
Mar@@ 874
werde 872
alcuni 871
ohne 870
sogar 870
Str@@ 869
kein 867
fu@@ 866
ihren 866
stiamo 865
gerade 861
unser 859
Dies 858
sion@@ 858
Teil 857
ano. 857
fine 857
pen@@ 857
aveva 856
reg@@ 856
a: 853
enz@@ 853
gra@@ 852
Tr@@ 850
inizi@@ 849
creare 848
problema 847
zione. 845
sa 840
ben 838
medi@@ 838
kann. 837
mit@@ 837
davon 835
du@@ 835
gab 835
mer@@ 834
Ecco 831
% 830
eri@@ 830
fosse 830
stanno 830
gener@@ 828
be 827
Eine 826
atori 826
Da 824
fino 824
rat@@ 823
Ihre 822
ellen 821
potete 820
voglio 819
cont@@ 818
ico, 818
ve 818
z 818
Ch@@ 817
dere 816
met@@ 816
so@@ 816
50 814
cin@@ 813
ersten 813
quelle 813
den. 810
fen 810
indi@@ 809
primo 809
Si@@ 808
visto 807
hat, 805
nie 804
5@@ 803
isch@@ 803
' 802
azione, 802
verso 802
dati 801
men@@ 799
pol@@ 799
war@@ 798
gehen 797
sarebbe 797
ati. 796
af@@ 795
Sie, 794
3 793
nostre 793
stell@@ 792
zioni 792
anni, 790
erste 790
art@@ 789
mus@@ 789
leb@@ 788
2 787
ali, 786
inn@@ 786
milioni 786
miei 785
test@@ 785
ex@@ 784
ico. 783
alen 781
ano, 781
ar 780
wird. 780
30 779
Br@@ 778
ieren 777
sen 777
Ora, 775
as 775
pp@@ 775
8@@ 774
capire 774
cu@@ 774
e-@@ 774
tig@@ 774
sin@@ 772
avano 771
Una 770
giorno 769
potrebbe 769
kon@@ 768
ich, 764
posto 764
sel@@ 764
den, 763
da, 762
lin@@ 762
vo 762
9@@ 761
New 760
einmal 758
sagen, 758
hat. 757
Kon@@ 755
etwa 755
ick@@ 755
bambini 753
ore. 753
heraus@@ 752
so, 752
dai 747
se@@ 747
machen. 746
Millionen 745
enen 745
ai@@ 744
ore, 742
Mo@@ 741
avete 741
ihrer 741
pres@@ 741
letzten 740
tiv@@ 740
ini@@ 739
fuori 738
ani 737
sagen 737
prot@@ 736
ins 735
olo 735
durch@@ 733
momento 733
forse 732
Fl@@ 730
attraverso 730
jeder 730
mondo. 730
Gr@@ 729
cambi@@ 729
ite 729
tion 729
dobbiamo 727
gl@@ 727
[@@ 726
avo 726
x@@ 724
En@@ 723
ari@@ 723
ati, 722
ens 721
iert 721
dir@@ 720
ganze 720
stati 720
arsi 719
dazu 718
grado 718
best@@ 717
dato 717
diamo 717
detto 716
veramente 716
warum 716
trov@@ 714
100 713
Reg@@ 713
meinem 713
molte 713
qualcuno 713
ungen, 712
Ora 711
ck@@ 711
ott@@ 710
nicht. 709
zion@@ 709
ente. 708
Su@@ 707
aiut@@ 705
credo 705
quale 705
agli 703
ata. 702
fac@@ 701
parlare 701
ft@@ 700
volte 700
lich, 699
vent@@ 699
hatten 695
meisten 695
sieht 694
Beispiel 693
Lebens@@ 693
oggi 693
To@@ 692
ini 692
iti 691
Pr@@ 690
essi@@ 690
pensare 689
nichts 688
Ber@@ 687
anni. 687
dur@@ 687
sto 686
geg@@ 685
ve@@ 685
sagte: 684
Bl@@ 682
Tag 682
en." 681
etti 681
wi@@ 681
grandi 680
dig@@ 679
ft 679
int@@ 679
El@@ 678
amente, 678
fu 678
stra@@ 678
Auf@@ 677
ate, 677
atore 677
tem@@ 677
Li@@ 676
defin@@ 676
wurden 676
Lo 674
gt 674
teil@@ 674
dare 673
mu@@ 673
chten 672
schen 672
wissen, 672
nuovo 671
ament@@ 668
oni 668
k, 667
eit@@ 666
immagin@@ 666
itt@@ 666
ette 665
gegen 664
aus. 663
contr@@ 663
meinen 663
welche 663
Problem 662
kommt 662
ent 661
kann, 661
ita 659
ros@@ 659
Im 658
alcune 658
ativ@@ 658
licher 657
quasi 657
via 657
zione, 657
Frauen 656
far 656
te@@ 656
war. 656
chte 655
sagte 654
este 652
son@@ 652
etta 651
si, 651
cal@@ 650
importante 650
kleinen 650
Grazie. 649
iti@@ 648
fanno 647
allo 646
esse 646
ziemlich 646
Arbeit 644
interess@@ 644
Prozent 643
atur@@ 643
bra@@ 643
eich@@ 643
post@@ 643
beg@@ 642
eil@@ 642
ach@@ 641
amo, 641
ario 641
bile 641
chten, 641
cur@@ 641
hal@@ 641
nach@@ 640
tutta 640
stessa 638
Io 637
Spiel@@ 637
olog@@ 637
ca@@ 636
sa@@ 636
Vi@@ 635
pa@@ 635
unseren 635
"S@@ 633
ei 633
no 633
o-@@ 633
azz@@ 632
bar 632
oper@@ 632
At@@ 631
fic@@ 631
isce 631
forma 630
lang@@ 628
prendere 628
sen@@ 627
tecnologia 627
ch, 626
sal@@ 625
sent@@ 625
cap@@ 623
macht 623
avuto 622
donne 622
pon@@ 622
ter, 622
wird, 622
Gi@@ 621
hab@@ 621
15 620
Ri@@ 620
hi@@ 620
cent@@ 619
ep@@ 619
ese 619
imm@@ 619
lich. 619
app@@ 618
kt 617
Quindi, 616
anti@@ 616
siano 616
000 615
doch 614
fil@@ 614
sich@@ 614
fon@@ 613
19@@ 612
abbastanza 612
do@@ 612
Ende 611
me, 610
not@@ 610
specie 610
tratt@@ 610
8 609
do, 609
zwei@@ 609
ationen 608
st. 607
can@@ 606
] 604
evano 604
mis@@ 603
ola 603
Y@@ 602
e." 602
get@@ 602
des@@ 601
ort@@ 601
Mon@@ 600
ente, 600
nehmen 600
voll@@ 600
weniger 600
ede 599
gen, 599
bene 597
prov@@ 596
u 596
Ma@@ 595
entr@@ 595
hr@@ 595
ischer 595
mente 595
dice 594
maggior 594
ing 593
ner@@ 592
indem 591
lui 590
6 589
sti@@ 589
vengono 589
.000 588
anza 588
b 588
Um@@ 587
bas@@ 587
chiam@@ 587
tigen 587
usare 587
ani@@ 586
ata, 586
continu@@ 586
quali 586
Dann 585
1 584
das, 584
dalle 583
Au@@ 582
e' 582
eva 582
funzion@@ 582
machen, 582
ont@@ 582
schw@@ 582
stellen 582
ern. 581
parl@@ 581
Ihr 580
Pro@@ 580
bili 580
viel@@ 580
m, 579
penso 579
trovare 579
bei@@ 578
dabei 578
enzi@@ 578
Kl@@ 577
y, 576
arbeit@@ 575
frag@@ 575
eig@@ 574
7 573
tanto 573
ana 572
bel@@ 572
esso 571
mat@@ 571
atti@@ 570
eigentlich 570
posso 570
us 570
aria 569
asse 569
gono 568
ich@@ 568
ban@@ 567
uti 567
gli@@ 566
ll@@ 566
secondo 566
finden 565
progett@@ 565
4 564
da. 564
ern, 564
erte 564
ss@@ 564
allora 563
denken 563
insieme 563
wor@@ 562
Ger@@ 561
Weg 560
certo 560
ganzen 560
sar@@ 560
studi@@ 559
Menschen, 558
facendo 558
fest@@ 558
tig 558
weiter@@ 558
Era 557
nis 556
sulle 556
avevo 555
sci@@ 555
vostro 555
Land 554
Wei@@ 554
bes@@ 554
geben 554
kleine 554
problemi 554
e" 553
sioni 553
weiter 553
Che 551
contro 550
casa 549
mettere 549
ph@@ 549
polit@@ 549
quest@@ 549
Medi@@ 548
Pl@@ 547
besser 547
compl@@ 547
tes 547
Frage 546
ging 546
sull'@@ 546
Nel 545
So@@ 545
cervello 545
essen 545
leben 545
rest@@ 545
at 544
lassen 544
oh@@ 544
tige 544
tu@@ 544
comun@@ 542
do. 542
si. 542
ti. 542
ord@@ 541
Denn 540
Gli 540
ho@@ 540
numero 540
sollten 540
t: 540
quattro 539
Hand@@ 538
ative 538
ma, 538
pro 538
wirk@@ 538
to@@ 537
fol@@ 536
seiner 536
ete, 535
keit 535
persona 535
will 535
aggi@@ 534
allen 534
aspett@@ 534
keinen 534
tun, 534
Per@@ 532
consider@@ 532
pag@@ 532
th@@ 532
Cosa 531
acht@@ 531
eggi@@ 531
las@@ 531
state 531
tra@@ 531
Co@@ 530
enza. 530
ihm 530
jemand 530
oso 529
quelli 529
Con@@ 528
dist@@ 528
essi 528
mut@@ 528
ne@@ 528
rel@@ 528
tur@@ 528
Land@@ 527
abb@@ 527
besch@@ 527
idea 527
lavor@@ 527
setz@@ 527
sotto 527
star@@ 526
vier 526
Bild 525
anzi@@ 525
el, 525
lieb@@ 525
vit@@ 525
Schul@@ 524
erst@@ 524
amo. 523
gen. 523
itz@@ 523
possibile 523
uman@@ 523
Menge 522
aus, 522
gu@@ 522
hin 522
lei 522
wunder@@ 522
Nor@@ 521
alten 521
cit@@ 521
durante 521
present@@ 521
sehen. 521
Unter@@ 520
jeden 520
ole 520
ub@@ 520
vedete 520
amente. 519
ante. 519
det 519
kam 519
Daten 518
ack@@ 518
lasci@@ 518
altr@@ 517
invest@@ 517
ster@@ 517
ate. 516
beim 516
brau@@ 516
suoi 516
wahr@@ 516
Mal 515
Vi 515
Zeit@@ 515
aggio 515
cht, 515
fa, 515
individu@@ 515
ost@@ 515
esempio, 514
vostra 514
irgend@@ 513
spiel@@ 513
weise 513
significa 512
emo 511
sap@@ 511
Bo@@ 510
Gehirn 510
agn@@ 510
eren. 510
ner 510
onen 510
sag@@ 510
tri@@ 510
enza, 509
gh@@ 509
speci@@ 509
Stati 508
dello 508
ina, 508
Aut@@ 507
lang 507
finanzi@@ 506
invece 506
oli 506
pas@@ 506
seit 506
und@@ 506
ke 505
pre@@ 505
vita. 505
Quello 504
chen. 504
ricerca 504
vielen 504
eren, 502
Vielen 501
eben 501
oft 501
quei 501
abbia 500
domanda 500
uta 499
40 498
evol@@ 498
res@@ 498
weg@@ 498
esempio 497
ock@@ 497
rag@@ 497
senso 497
spar@@ 497
vor, 497
Dollar 496
Voglio 496
denke, 496
err@@ 496
ici, 496
igen 496
livello 496
oni@@ 496
sui 496
vero 496
deve 495
nicht@@ 495
Wasser 494
cost@@ 494
erst 494
liches 494
sicur@@ 494
sk@@ 494
fast 493
wollte 493
0@@ 492
ehr@@ 492
ger 492
torn@@ 492
wollen 492
bin@@ 491
inc@@ 491
iss@@ 490
os 490
Idee 489
eigenen 489
ento 489
mondo, 488
Schw@@ 487
arono 487
ti, 487
aver 486
o." 486
darauf 485
konnte 485
neuen 485
sembra 485
super@@ 485
tratta 485
wir@@ 485
Geld 484
glaube, 484
ide@@ 484
mag@@ 484
ose 484
beh@@ 483
capit@@ 483
ein. 483
nello 483
posi@@ 483
Jetzt 482
Technologie 482
cambiare 482
tun. 482
Ge@@ 481
co, 481
ige 481
Ges@@ 480
altra 480
iniziato 480
oltre 478
onn@@ 478
ecco 477
ell 477
finden, 477
9 476
pal@@ 476
wenig 476
alizz@@ 475
daran 475
facciamo 475
g, 475
ro 475
sollte 475
wegen 474
esi 473
segu@@ 473
stand 473
tor@@ 473
ungen. 473
trag@@ 472
gruppo 471
por@@ 471
co. 470
halt@@ 470
jedes 470
komm@@ 470
otti@@ 470
semplicemente 470
Po@@ 469
mie 469
dor@@ 468
natur@@ 468
pes@@ 468
Bu@@ 467
siete 467
Zukunft 466
unserem 466
Mit 464
di, 464
di. 464
avevano 463
bet@@ 463
esi@@ 462
est 462
ici@@ 462
rem@@ 462
Also, 461
fall@@ 461
possa 461
ra, 461
brauchen 460
dic@@ 460
ein, 460
evo 460
imp@@ 460
ra. 460
"Ich 459
Ha 459
Nach@@ 459
arci 459
gemacht 459
mp@@ 459
,@@ 458
ation@@ 458
cht. 458
coll@@ 458
colleg@@ 458
enti. 458
ura 458
Du 457
zusammen@@ 457
Dank. 456
ink@@ 456
meglio 456
pubblic@@ 456
Ex@@ 455
arriv@@ 455
heit@@ 455
produ@@ 455
seinen 455
visi@@ 455
assi@@ 454
evamo 454
gibt, 454
hei@@ 454
poter 454
questo, 454
amp@@ 453
enst@@ 453
schau@@ 453
denken, 452
ezza 452
fis@@ 451
wir, 451
appena 450
lange 450
utilizz@@ 450
wahrscheinlich 450
y. 450
dit@@ 449
diver@@ 449
ha@@ 449
ja, 449
on, 449
osi 449
Gen@@ 448
Ro@@ 448
Warum 448
mento 448
progetto 448
spazio 448
costru@@ 447
costruire 446
sier@@ 446
t? 446
der, 445
ologi@@ 445
Ent@@ 444
chen, 444
corr@@ 444
gioc@@ 444
mess@@ 444
stellen, 444
ute 444
mm@@ 443
seh@@ 442
stat@@ 442
etwas, 441
scoperto 441
"N@@ 440
Sh@@ 440
ami@@ 440
unden 440
Gra@@ 439
Or@@ 439
attiv@@ 439
dire, 439
nuova 439
wach@@ 439
ay@@ 438
erk@@ 438
ler@@ 438
questo. 438
0, 437
and, 437
men, 437
so. 437
vediamo 437
utz@@ 436
ang 435
difficile 435
troppo 435
del@@ 434
piuttosto 434
Gef@@ 433
Internet 433
jede 433
acqua 432
enze 432
interessante 432
utt@@ 432
caso 431
chter 431
esist@@ 431
preso 431
computer 430
dendo 430
iscono 430
otto 430
Beh, 429
appar@@ 429
Dar@@ 428
Raum 428
atto 428
bri@@ 428
cinque 428
conto 428
part@@ 428
elli 427
rig@@ 427
Poi 426
abil@@ 426
ehen 426
gute 426
soci@@ 426
stand@@ 426
successo 426
ina. 425
nas@@ 425
Questi 424
Sk@@ 424
Ur@@ 424
aci@@ 424
bell@@ 424
cam@@ 424
tut@@ 424
Meine 423
e". 423
rete 423
sappiamo 423
weit 423
k. 422
Seite 421
agen 421
dollari 421
enk@@ 421
enti, 421
enti@@ 421
lungo 421
mitt@@ 421
Weise 420
ihrem 420
paesi 420
probabilmente 420
cos@@ 418
ici. 418
miliardi 418
ultimi 418
loc@@ 417
portare 416
seinem 416
x 416
Se@@ 415
cominci@@ 415
hol@@ 415
liber@@ 415
piccolo 415
pri@@ 415
spesso 414
Gesch@@ 413
Jahr@@ 413
beweg@@ 413
cas@@ 413
ecc@@ 413
sagte, 413
Wer@@ 412
stehen 412
Her@@ 410
devo 410
luce 410
ane 409
chiamo 409
divent@@ 409
fantast@@ 409
mostra 409
sl@@ 409
alist@@ 408
asi@@ 408
bringen 408
entdeck@@ 408
S 407
cia 407
dent@@ 407
mezzo 407
nah@@ 407
vista 407
Com@@ 406
ante, 406
en-@@ 406
lichkeit 406
qui, 406
ieren, 405
impar@@ 405
io. 405
issi@@ 405
mano 405
mostr@@ 405
sper@@ 405
stellen. 405
uomini 405
ello 404
farlo 404
ker 404
niente 404
wurde, 404
ze 404
zier@@ 404
Wissen 403
isches 403
schnell 403
soll@@ 403
zer@@ 403
Siamo 402
frei@@ 402
spieg@@ 402
Mann 401
astr@@ 401
bau@@ 401
dec@@ 401
ori, 401
osserv@@ 401
Kom@@ 400
halten 400
me. 400
un'altra 400
arlo 399
don@@ 399
li, 399
18@@ 398
acci@@ 398
arl@@ 398
gehen, 398
migli@@ 398
pan@@ 398
richt@@ 398
wer 398
Grazie 397
completamente 397
dav@@ 397
lan@@ 397
ret@@ 397
vo@@ 397
Kind 396
foto 396
fri@@ 396
ko@@ 396
quest'@@ 396
radi@@ 396
sicher@@ 396
Dinge, 395
Welt@@ 395
amenti 395
anto 395
tern 395
viv@@ 395
Mil@@ 394
biolog@@ 394
diventare 394
lavorare 394
nessuno 394
uso 394
zeigt 394
el. 393
elt 393
insegn@@ 393
inten@@ 393
kauf@@ 393
orn@@ 393
vivere 393
eck@@ 392
ess 392
gem@@ 392
uti@@ 392
199@@ 391
CA: 391
Mein 391
bisschen 391
ca. 391
piac@@ 391
piccola 391
vi. 391
a-@@ 390
chte, 390
hai 390
moder@@ 390
nor@@ 390
Dieses 389
Gemein@@ 389
arbeiten 389
diversi 389
go 389
kommen. 389
az@@ 388
ch. 388
enz 388
fot@@ 388
namens 388
risposta 388
sapere 388
zeichn@@ 388
c 387
cercando 387
ena 387
energia 387
g. 387
scar@@ 387
Di 386
Schl@@ 386
ank@@ 386
ation, 386
entwickel@@ 386
gehen. 386
prim@@ 386
sione, 386
wichtig 386
wurde. 386
zen 386
60 385
aer@@ 385
conn@@ 385
ieren. 385
inf@@ 385
io, 385
meravigli@@ 385
normal@@ 385
proc@@ 385
dern 384
doman@@ 384
izz@@ 384
limit@@ 384
Frau 383
denke 383
mort@@ 383
ram@@ 383
Herz@@ 382
anzu@@ 382
migliore 382
quell'@@ 382
ragazzi 382
schaft 382
USA 381
ange@@ 381
avrebbe 381
je 381
li. 381
qualsiasi 381
svilupp@@ 381
Milliarden 380
anno. 380
pt@@ 380
verschiedene 380
Le@@ 379
gesehen 379
sione. 379
zusammen 379
ambi@@ 378
ion@@ 378
ure 378
zw@@ 378
Kur@@ 377
O 377
eder@@ 377
ismo 377
m. 377
pi 377
sit@@ 377
vic@@ 377
Auf 376
Possiamo 376
Wi@@ 376
einander 376
geben, 376
nuove 376
pic@@ 376
Bil@@ 375
lag@@ 375
ber 374
rappresent@@ 374
emente 373
fatt@@ 373
signific@@ 373
detto, 372
ja 372
um, 372
uns, 372
val@@ 372
12 371
base 371
corso 371
her 371
los@@ 371
neur@@ 371
posti 371
York 370
americ@@ 370
anno, 370
fal@@ 370
rieb@@ 370
ach 369
aten 369
cercare 369
figli@@ 369
mol@@ 369
qualunque 369
se, 369
Nun 368
effetti 368
ert. 368
ge, 368
hatte, 368
ma. 368
porta 368
vist@@ 368
wieder@@ 368
Queste 367
atura 367
cose. 367
esser@@ 367
icamente 367
modello 367
passiert 367
s-@@ 367
zeigen, 367
armi 366
gleich@@ 366
heit, 366
poco 366
ren@@ 366
segn@@ 366
vuole 366
weis@@ 366
Grund@@ 365
Pol@@ 365
Projek@@ 365
Sti@@ 365
dau@@ 365
dovuto 365
facci@@ 365
habe, 365
intern@@ 365
lieg@@ 365
paio 365
son 365
c'era 364
ricor@@ 364
sagt 364
Qui 363
Vide@@ 363
fica 363
glaube 363
idee 363
Fil@@ 362
Probleme 362
fahren 362
innov@@ 362
omi@@ 362
on. 362
Kor@@ 361
bare 361
fe 361
mach@@ 361
messo 361
oo@@ 361
Man@@ 360
Vielleicht 360
haf@@ 360
intellig@@ 360
macchina 360
uomo 360
's 359
Weil 359
Welt. 359
bevor 359
conc@@ 359
gar@@ 359
masch@@ 359
ster 359
Ni@@ 358
fahr@@ 358
pu@@ 358
qui. 358
spazi@@ 358
trovato 358
Doch 357
For@@ 357
anti, 357
anze 357
azion@@ 357
fen, 357
glich 357
gui@@ 357
industri@@ 357
organ@@ 357
straordin@@ 357
wohl 357
chiamato 356
ert, 356
futuro 356
gar 356
kur@@ 356
steh@@ 356
cir@@ 355
grazie 355
osa 355
persone, 355
scor@@ 355
vogliamo 355
?@@ 354
bereits 354
cellul@@ 354
che. 354
eut@@ 354
migliaia 354
popol@@ 354
schein@@ 354
vi, 354
diverse 353
Stadt 352
bekommen 352
corpo 352
entlich 352
genug 352
ill@@ 352
ler 352
piace 352
Im@@ 351
Teil@@ 351
Um 351
a." 351
causa 351
comport@@ 351
eden@@ 351
gio@@ 351
metter@@ 351
Moment 350
ando. 350
finden. 350
sbagli@@ 350
ter. 350
Zi@@ 349
anti. 349
auf, 349
bedeut@@ 349
dem@@ 349
informazioni 349
Sache 348
anders 348
ih@@ 348
religi@@ 348
rispetto 348
seconda 348
All@@ 347
Car@@ 347
Bei 346
Grund 346
controll@@ 346
deci@@ 346
end. 346
oss@@ 346
semplice 346
cher 345
einigen 345
guar@@ 345
odi@@ 345
ow@@ 345
sah 345
sentito 345
sott@@ 345
storie 345
Mutter 344
al, 344
ele 344
euch 344
he 344
Fragen 343
Fre@@ 343
Sta@@ 343
abile 343
aum 343
compr@@ 343
dessen 343
gleichen 343
nome 343
sion 343
beiden 342
dono 342
Gel@@ 341
Informationen 341
System 341
ay 341
bringen, 341
differ@@ 341
pun@@ 341
Kinder@@ 340
alt 340
creato 340
menschlichen 340
wes@@ 340
25 339
Ak@@ 339
Pri@@ 339
arvi 339
echn@@ 339
priv@@ 339
um. 339
vel@@ 339
versu@@ 339
Erde 338
dovrebbe 338
elettr@@ 338
esso, 338
fangen 338
of@@ 338
sens@@ 338
verstehen, 338
Person 337
colp@@ 337
conten@@ 337
ebbe 337
emp@@ 337
gleich 337
verb@@ 337
vorrei 337
Con 336
Mi@@ 336
Welt, 336
Wo@@ 336
ard@@ 336
posizione 336
stu@@ 336
acca@@ 335
cellule 335
cono 335
dachte 335
eo 335
esen 335
mir, 335
mittel@@ 335
zeigen 335
ag 334
arr@@ 334
erz@@ 334
esperienza 334
forza 334
passier@@ 334
succede 334
vere 334
Computer 333
Credo 333
Natur@@ 333
genet@@ 333
sem@@ 333
tran@@ 333
ust@@ 333
Plan@@ 332
cart@@ 332
gerne 332
hatte. 332
jedem 332
miglior@@ 332
nuovi 332
potere 332
tuo 332
Best@@ 331
Kar@@ 331
Rei@@ 331
adesso 331
aper@@ 331
aument@@ 331
bene. 331
oben 331
one. 331
persone. 331
profon@@ 331
Leuten 330
inci@@ 330
ins@@ 330
ologie 330
tion@@ 330
verg@@ 330
begann 329
giro 329
gn@@ 329
incontr@@ 329
mer 329
neg@@ 329
verschiedenen 329
500 328
Vor 328
cominciato 328
dop@@ 328
einfach@@ 328
noi. 328
positiv@@ 328
"H@@ 327
Dov@@ 327
Neu@@ 327
Oder 327
Ph@@ 327
Potete 327
ab 327
animali 327
ari, 327
benutz@@ 327
cambiamento 327
geben. 327
w 327
Fahr@@ 326
arte 326
bringen. 326
ppe 326
scuola 326
sei@@ 326
vec@@ 326
Dobbiamo 325
Geschichten 325
enorme 325
ft, 325
in, 325
kehr@@ 325
mel@@ 325
oi@@ 325
rom@@ 325
sche 325
sie, 325
tant@@ 325
tempo, 325
Part@@ 324
auf. 324
chiama 324
dich 324
kommen, 324
processo 324
serie 324
sistemi 324
stava 324
ah 323
h, 323
iger 323
tern@@ 323
Dieser 322
Ideen 322
besonders 322
pubblico 322
richtig 322
studenti 322
!" 321
...@@ 321
Danke. 321
Forsch@@ 321
Qual@@ 321
gir@@ 321
hoff@@ 321
diff@@ 320
emo@@ 320
mich, 320
prom@@ 320
uale 320
Bau@@ 319
Zeit, 319
anim@@ 319
chten. 319
esattamente 319
kom@@ 319
liegt 319
Form 318
Ju@@ 318
Problem@@ 318
cci@@ 318
esc@@ 318
etter@@ 318
land@@ 318
vers@@ 318
viol@@ 318
Bes@@ 317
Fall 317
Schule 317
abbi@@ 317
attr@@ 317
conosc@@ 317
fortun@@ 317
gioco 317
ing, 317
inv@@ 317
sue 317
Ort 316
bene, 316
lern@@ 316
Antwort 315
Ben@@ 315
bambino 315
col 315
cultur@@ 315
dovremmo 315
organizz@@ 315
sy@@ 315
uom@@ 315
Hanno 314
hier@@ 314
iche 314
tere 314
vita, 314
zei@@ 314
Prot@@ 313
Sol@@ 313
fotograf@@ 313
itu@@ 313
mes@@ 313
otten@@ 313
paese 313
primi 313
tu 313
Al 312
Beg@@ 312
Energie 312
chiar@@ 312
rei 312
Ant@@ 311
Bene, 311
anza, 311
arb@@ 311
etz@@ 311
irgendwie 311
mo. 311
motivo 311
one, 311
riff@@ 311
sistem@@ 311
tent@@ 311
Wal@@ 310
ativo 310
auen 310
drei@@ 310
fam@@ 310
neu@@ 310
Fol@@ 309
Gehirn@@ 309
Gl@@ 309
Mit@@ 309
achen 309
cento 309
deren 309
globale 309
visione 309
Afrika 308
agli@@ 308
ea 308
giorni 308
giust@@ 308
media 308
noi, 308
od@@ 308
parole 308
pul@@ 308
schaffen 308
steht 308
struttura 308
Penso 307
comp@@ 307
econom@@ 307
eten, 307
flu@@ 307
innerhalb 307
libro 307
modi 307
musste 307
occhi@@ 307
samm@@ 307
veder@@ 307
wollen, 307
200 306
Ide@@ 306
aller@@ 306
ativa 306
atz@@ 306
dol@@ 306
ft. 306
peggi@@ 306
portato 306
sost@@ 306
stellt 306
Frei@@ 305
besten 305
disegn@@ 305
giorn@@ 305
potr@@ 305
potuto 305
raccont@@ 305
sagen: 305
sequ@@ 305
to. 305
condi@@ 304
fatti 304
lassen. 304
menschliche 304
reb@@ 304
sprechen 304
to, 304
Arten 303
ann 303
bereit@@ 303
dentro 303
heit. 303
usa 303
zioni. 303
zzi@@ 303
Anche 302
Planeten 302
bedeutet, 302
guardare 302
l'idea 302
omi 302
ori. 302
sh@@ 302
studio 302
00@@ 301
Pa@@ 301
aden 301
avi@@ 301
digit@@ 301
ono. 301
Gu@@ 300
Ja, 300
Licht 300
aggi 300
amento. 300
avamo 300
gere 300
glaub@@ 300
o". 300
oce@@ 300
ragazz@@ 300
Sek@@ 299
ammo 299
campo 299
ender 299
gewor@@ 299
imparare 299
sti 299
video 299
wert@@ 299
Bet@@ 298
Dr@@ 298
Zwei@@ 298
deut@@ 298
ezz@@ 298
heraus, 298
piccol@@ 298
pio 298
propria 298
pubbl@@ 298
qual@@ 298
strada 298
tutto, 298
1. 297
Dat@@ 297
Gruppe 297
Natur 297
Ru@@ 297
Sar@@ 297
Tag@@ 297
dagli 297
donna 297
emmo 297
genommen 297
matt@@ 297
potremmo 297
80 296
Hei@@ 296
Ter@@ 296
Web@@ 296
avanti 296
centro 296
end, 296
fare. 296
felic@@ 296
gran 296
gros@@ 296
intorno 296
kam@@ 296
prender@@ 296
stimm@@ 296
ando, 295
buona 295
ee 295
eher 295
ezione 295
import@@ 295
manchmal 295
vano 295
10@@ 294
Bilder 294
Indi@@ 294
Studi@@ 294
Tutti 294
anderes 294
auto 294
bis@@ 294
hier, 294
mangi@@ 294
oti@@ 294
pron@@ 294
risol@@ 294
Gew@@ 293
anz 293
ci, 293
cibo 293
cres@@ 293
intr@@ 293
menti 293
pren@@ 293
sapete, 293
sechs 293
succ@@ 293
trop@@ 293
wo@@ 293
Lehr@@ 292
Schi@@ 292
bo@@ 292
egn@@ 292
ey 292
governo 292
nahmen 292
occhi 292
ogen@@ 292
ri 292
ur 292
aller 291
almente, 291
cli@@ 291
lavoro. 291
oro 291
perf@@ 291
rob@@ 291
sul@@ 291
ts 291
zioni, 291
alisier@@ 290
asi 290
chiesto 290
fort@@ 290
ind@@ 290
mett@@ 290
neh@@ 290
potrebbero 290
vari@@ 290
weg 290
Stellen 289
erstaun@@ 289
gran@@ 289
invent@@ 289
lung@@ 289
preoccup@@ 289
qui@@ 289
tel@@ 289
Leute, 288
Minuten 288
Te@@ 288
andato 288
aufzu@@ 288
dies@@ 288
eil 288
etti@@ 288
schaft@@ 288
tempo. 288
age 287
capi@@ 287
er-@@ 287
ou@@ 287
prefer@@ 287
servi@@ 287
sich, 287
M: 286
Tran@@ 286
X@@ 286
altro. 286
anza. 286
fen. 286
kt@@ 286
ulti@@ 286
Buch 285
Mensch@@ 285
Wissenschaft 285
bal@@ 285
bambin@@ 285
eigene 285
gibt. 285
parla 285
problem@@ 285
reag@@ 285
scopr@@ 285
50@@ 284
C 284
Organis@@ 284
System@@ 284
amin@@ 284
bekann@@ 284
fand 284
ident@@ 284
lig@@ 284
men. 284
mo, 284
nisse 284
oso. 284
pensato 284
tru@@ 284
ved@@ 284
"O@@ 283
Vol@@ 283
al. 283
centr@@ 283
halten, 283
he@@ 283
poter@@ 283
verkauf@@ 283
Av@@ 282
Tutto 282
Versu@@ 282
arri@@ 282
ce. 282
faccio 282
findet 282
isch. 282
keiten 282
mesi 282
wel@@ 282
Spr@@ 281
glob@@ 281
konnten 281
metri@@ 281
spezi@@ 281
zi 281
Forse 280
collabor@@ 280
det@@ 280
e... 280
habe. 280
mei@@ 280
mil@@ 280
ottenere 280
parti 280
saranno 280
stor@@ 280
Stunden 279
au 279
erzeu@@ 279
funktionier@@ 279
immagini 279
natura 279
sam@@ 279
untersu@@ 279
weitere 279
Met@@ 278
amb@@ 278
apr@@ 278
consi@@ 278
deva 278
ete. 278
hinter 278
keit. 278
les@@ 278
particolare 278
sicher 278
sicht@@ 278
tief@@ 278
tive 278
verbess@@ 278
Sprache 277
Unternehmen 277
egen 277
eist@@ 277
exist@@ 277
luogo 277
mot@@ 277
stelle 277
umani 277
waren, 277
Chi@@ 276
Fr@@ 276
Ha@@ 276
Kin@@ 276
TED@@ 276
acht 276
azioni. 276
bel 276
eben@@ 276
einzige 276
scienza 276
sviluppo 276
trasform@@ 276
', 275
Allora 275
all'interno 275
auszu@@ 275
bile. 275
braucht 275
conosci@@ 275
e?" 275
etto. 275
mare 275
red@@ 275
robot 275
schauen 275
steck@@ 275
verstehen 275
Familie 274
Ist 274
Punkt 274
Vir@@ 274
Vortrag 274
Zum 274
dimostr@@ 274
economi@@ 274
imparato 274
lingu@@ 274
macch@@ 274
piccoli 274
ries@@ 274
sen, 274
spost@@ 274
Noi 273
Werkzeu@@ 273
cat@@ 273
cerc@@ 273
improvvis@@ 273
ingu@@ 273
prem@@ 273
razione 273
tipi 273
guerra 272
kr@@ 272
kre@@ 272
meines 272
ologia 272
ragion@@ 272
sco@@ 272
unk@@ 272
B: 271
Bru@@ 271
Haupt@@ 271
avrei 271
devono 271
fig@@ 271
mi. 271
om 271
regol@@ 271
uni@@ 271
versch@@ 271
Auto 270
Krank@@ 270
Lu@@ 270
Projekt 270
bedeutet 270
chie@@ 270
ew@@ 270
pressione 270
Bab@@ 269
John 269
andel@@ 269
ari. 269
complet@@ 269
crescita 269
cri@@ 269
eiten 269
etto, 269
fat@@ 269
icht@@ 269
lav@@ 269
ono, 269
plic@@ 269
po, 269
prest@@ 269
puoi 269
sacco 269
Regierung 268
Universit@@ 268
ath@@ 268
ation. 268
chte. 268
misur@@ 268
mont@@ 268
questione 268
rec@@ 268
spi@@ 268
tua 268
vin@@ 268
Ne@@ 267
ce, 267
grei@@ 267
ito, 267
pover@@ 267
recht 267
18 266
condivi@@ 266
dem, 266
dente 266
differenza 266
gestellt 266
leist@@ 266
ohn@@ 266
scel@@ 266
stessi 266
verw@@ 266
ystem@@ 266
Augen 265
David 265
Materi@@ 265
Wel@@ 265
aliment@@ 265
alto 265
applic@@ 265
convin@@ 265
gend@@ 265
l'in@@ 265
madre 265
Kopf 264
Mag@@ 264
Patienten 264
accor@@ 264
acqu@@ 264
ambiente 264
arrivare 264
azioni, 264
chieder@@ 264
izi@@ 264
orient@@ 264
prev@@ 264
ultimo 264
Bel@@ 263
DN@@ 263
batter@@ 263
comunic@@ 263
dom@@ 263
fel@@ 263
possano 263
rier@@ 263
sage 263
usato 263
zahl@@ 263
100@@ 262
DNA 262
Hand 262
also, 262
dimension@@ 262
geschi@@ 262
giorno, 262
glauben, 262
hi 262
innen 262
kamen 262
perc@@ 262
prepar@@ 262
schwer@@ 262
vostri 262
Gesellschaft 261
Haus@@ 261
aspetto 261
coinvol@@ 261
fa. 261
lo@@ 261
pia 261
Krieg@@ 260
Musik 260
Ogni 260
a". 260
as, 260
domande 260
gleiche 260
letzte 260
rac@@ 260
uch 260
unde 260
waren. 260
Macht 259
Tier@@ 259
alz@@ 259
aver@@ 259
cel@@ 259
dir 259
dung 259
gri@@ 259
oggi, 259
oggi. 259
secon@@ 259
sorg@@ 259
tit@@ 259
0. 258
Google 258
Min@@ 258
deb@@ 258
film 258
gern 258
nen. 258
no, 258
Am@@ 257
Gut@@ 257
Hause 257
Hin@@ 257
almeno 257
calcol@@ 257
dott@@ 257
er: 257
falls 257
ito. 257
rot@@ 257
Kan@@ 256
aiutare 256
ase 256
endlich 256
epi@@ 256
esa 256
eten. 256
famiglia 256
forme 256
hn@@ 256
klein@@ 256
mezz@@ 256
ogn@@ 256
possi@@ 256
resist@@ 256
tal@@ 256
vogliono 256
Mc@@ 255
Unsere 255
Vater 255
Viele 255
Wer 255
a' 255
bess@@ 255
diventa 255
erung 255
ga 255
gesagt, 255
kurz 255
leben, 255
mi, 255
sprechen, 255
steig@@ 255
terra 255
verbin@@ 255
versuchen 255
Mut@@ 254
atric@@ 254
hervor@@ 254
niss@@ 254
ogli@@ 254
pensiamo 254
Bei@@ 253
Lassen 253
Mat@@ 253
Selbst@@ 253
baren 253
chiamata 253
formi@@ 253
je@@ 253
migliori 253
ora, 253
rendere 253
setzen 253
telef@@ 253
usando 253
viamo 253
zwar 253
Fel@@ 252
Grunde 252
Indien 252
Wasser@@ 252
direkt 252
fine, 252
hoch@@ 252
mensch@@ 252
of 252
schaffen, 252
"Non 251
Ap@@ 251
Ihren 251
equi@@ 251
programma 251
rin@@ 251
tau@@ 251
viaggi@@ 251
11 250
Chris 250
Inform@@ 250
ans 250
as. 250
concentr@@ 250
dietro 250
educ@@ 250
eni@@ 250
interag@@ 250
necess@@ 250
omm@@ 250
ordin@@ 250
po 250
rende 250
D 249
ab. 249
cammin@@ 249
cav@@ 249
cio 249
deciso 249
eranno 249
leben. 249
lernen 249
log@@ 249
mercato 249
nutz@@ 249
occup@@ 249
ograf@@ 249
passato 249
periodo 249
punt@@ 249
sentire 249
Arbeit@@ 248
Mal@@ 248
Ric@@ 248
Uni@@ 248
ace 248
bor@@ 248
cl@@ 248
daran, 248
design 248
ehr 248
ens, 248
fass@@ 248
guardate 248
musica 248
omet@@ 248
schaften 248
zul@@ 248
Gol@@ 247
assen 247
chim@@ 247
desig@@ 247
diment@@ 247
divert@@ 247
evi@@ 247
fronte 247
isch, 247
Europ@@ 246
a" 246
ausge@@ 246
crit@@ 246
essimo 246
materi@@ 246
og 246
over@@ 246
render@@ 246
vicino 246
zieren 246
Hel@@ 245
api@@ 245
cura 245
l'ho 245
orizz@@ 245
rett@@ 245
rifl@@ 245
spor@@ 245
stellung 245
stess@@ 245
strumenti 245
vis@@ 245
woll@@ 245
ystem 245
zeigt, 245
Eltern 244
Engl@@ 244
controllo 244
iment@@ 244
muov@@ 244
no. 244
sig@@ 244
suon@@ 244
tir@@ 244
trova 244
universit@@ 244
volta, 244
Mor@@ 243
Nutz@@ 243
cond@@ 243
jedoch 243
los 243
oci 243
sangu@@ 243
solche 243
tante 243
Kindern 242
Proz@@ 242
abi@@ 242
amento, 242
bit@@ 242
ekt 242
erkenn@@ 242
essa 242
evi 242
gkeit 242
guer@@ 242
machte 242
parola 242
realizz@@ 242
satz 242
schul@@ 242
ucci@@ 242
uss@@ 242
China 241
Dopo 241
Durch@@ 241
Europa 241
ache 241
allem 241
ator@@ 241
bild@@ 241
cr@@ 241
denk@@ 241
e; 241
guard@@ 241
i? 241
ice 241
leit@@ 241
mic@@ 241
orie 241
ull@@ 241
volevo 241
Bild@@ 240
Dis@@ 240
atamente 240
atter@@ 240
bauen 240
conos@@ 240
eremo 240
eser@@ 240
fatto, 240
find@@ 240
funziona 240
mal, 240
yn@@ 240
Bro@@ 239
Design 239
Entwicklung 239
Jahrhunder@@ 239
agna 239
ani, 239
atti 239
druck@@ 239
emer@@ 239
fondament@@ 239
geht, 239
ierte 239
in. 239
isse 239
lanci@@ 239
nell@@ 239
schick@@ 239
sein@@ 239
test 239
verli@@ 239
wirtschaft@@ 239
Ero 238
assolutamente 238
hand@@ 238
iert. 238
kn@@ 238
lass@@ 238
lassen, 238
loro. 238
padre 238
ragione 238
198@@ 237
Energi@@ 237
amer@@ 237
gut. 237
halten. 237
ignor@@ 237
let@@ 237
sehr, 237
stavo 237
verwend@@ 237
weiter. 237
zeit 237
Afrik@@ 236
Cor@@ 236
Frag@@ 236
dev@@ 236
energi@@ 236
ino. 236
ire. 236
ling@@ 236
mos@@ 236
pat@@ 236
schaft, 236
sitz@@ 236
tanti 236
vera 236
14 235
15@@ 235
Bar@@ 235
Cer@@ 235
Gener@@ 235
Gesell@@ 235
Inter@@ 235
Tiere 235
alien 235
ations@@ 235
cc@@ 235
faccia 235
famigli@@ 235
forder@@ 235
gal@@ 235
gemacht. 235
linea 235
rim@@ 235
spl@@ 235
sprech@@ 235
tionen 235
Dam@@ 234
Lebens 234
Nicht 234
accad@@ 234
assicur@@ 234
bast@@ 234
beobacht@@ 234
fossero 234
fragen 234
halb 234
kenn@@ 234
massi@@ 234
risultato 234
schnell@@ 234
termini 234
Leb@@ 233
Mitt@@ 233
Unterneh@@ 233
affrontare 233
anc@@ 233
bian@@ 233
bile, 233
centinaia 233
elo 233
fun@@ 233
krei@@ 233
lauf@@ 233
mein@@ 233
ovviamente, 233
partecip@@ 233
scen@@ 233
unseres 233
voc@@ 233
zieh@@ 233
A, 232
Ad@@ 232
Am 232
Angst 232
Fall@@ 232
Stu@@ 232
ahn@@ 232
anda 232
cose, 232
geschaff@@ 232
mem@@ 232
oi 232
pian@@ 232
popolazione 232
raccol@@ 232
trau@@ 232
Ihrem 231
arli 231
avevamo 231
kri@@ 231
nimmt 231
o" 231
prodotto 231
strateg@@ 231
techn@@ 231
Weg@@ 230
accett@@ 230
azionale 230
buon 230
cancro 230
cresci@@ 230
en?" 230
esso. 230
facil@@ 230
giorno. 230
imento 230
impres@@ 230
nutzen 230
oph@@ 230
remo 230
schreck@@ 230
us, 230
vanno 230
Me@@ 229
Potr@@ 229
ativi 229
ca, 229
economia 229
ent. 229
essen, 229
funktioniert 229
informa@@ 229
ingen 229
kommt, 229
niemand 229
osp@@ 229
paes@@ 229
veloc@@ 229
/@@ 228
Kunst 228
denza 228
descri@@ 228
dire@@ 228
enten 228
gang 228
issimo 228
scritto 228
wann 228
Heute 227
Isl@@ 227
Lage 227
Monate 227
Roboter 227
amici 227
ascolt@@ 227
erwart@@ 227
ffen 227
importanti 227
isti 227
keit, 227
meccan@@ 227
nehmen, 227
neu 227
obwohl 227
ogi@@ 227
resto 227
selben 227
sola 227
soldi 227
verschw@@ 227
'. 226
ami 226
arla 226
damals 226
davanti 226
enor@@ 226
kost@@ 226
man, 226
mist@@ 226
piccole 226
prog@@ 226
re, 226
risultati 226
sett@@ 226
situazione 226
stoff@@ 226
uli@@ 226
wichtig@@ 226
zeig@@ 226
1,@@ 225
Fran@@ 225
Kr@@ 225
Zusammen@@ 225
alte 225
arbeiten, 225
compet@@ 225
dicono 225
dopo, 225
esten 225
jen@@ 225
lavoro, 225
molto, 225
o... 225
punti 225
universo 225
voll 225
De@@ 224
Ding@@ 224
affascin@@ 224
bass@@ 224
caus@@ 224
denken. 224
endi@@ 224
ere. 224
heiten 224
mili@@ 224
minuti 224
mur@@ 224
ogra@@ 224
ome 224
paura 224
prodotti 224
program@@ 224
sarebbero 224
toll@@ 224
Film 223
Menschen. 223
Sachen 223
War@@ 223
Wor@@ 223
Wort 223
art 223
folgen@@ 223
ist: 223
meine, 223
ora. 223
ota 223
pianeta 223
poteva 223
san@@ 223
storia. 223
tornare 223
v 223
300 222
Fin@@ 222
Industri@@ 222
Uniti 222
aler 222
beginn@@ 222
capito 222
conclu@@ 222
cosa. 222
cultura 222
en; 222
erl@@ 222
eso 222
fondo 222
geht. 222
jemals 222
kontrolli@@ 222
nemmeno 222
nu@@ 222
pos@@ 222
possibil@@ 222
respons@@ 222
schwer 222
sen. 222
sint@@ 222
sopra 222
uh@@ 222
und, 222
vogli@@ 222
ziert 222
Anfang 221
Ang@@ 221
Nach 221
ativen 221
aut 221
ck 221
indietro 221
maniera 221
pianet@@ 221
prat@@ 221
rivel@@ 221
se. 221
wollen. 221
Denken 220
Eis@@ 220
Ess@@ 220
Punk@@ 220
Raum@@ 220
Universum 220
Verhalten 220
beeinflus@@ 220
darin 220
desider@@ 220
facile 220
heb@@ 220
o?" 220
org@@ 220
piano 220
reste 220
rima@@ 220
scoprire 220
sprechen. 220
verur@@ 220
Gehir@@ 219
Gleich@@ 219
ani. 219
cell@@ 219
dest@@ 219
eln, 219
esseri 219
gemein@@ 219
pazi@@ 219
scrivere 219
zeit@@ 219
00 218
E, 218
Kre@@ 218
Pens@@ 218
Ser@@ 218
Uno 218
Zw@@ 218
arti@@ 218
bestimm@@ 218
detto: 218
dig 218
ers 218
fall 218
inizio 218
malattie 218
mam@@ 218
richi@@ 218
rum@@ 218
stellte 218
terri@@ 218
umano 218
ziehen 218
Deshalb 217
Ho@@ 217
Super@@ 217
anschau@@ 217
chirur@@ 217
dett@@ 217
fas@@ 217
fra 217
gan@@ 217
interessan@@ 217
ker@@ 217
princi@@ 217
sito 217
tura 217
virtu@@ 217
"A@@ 216
"Das 216
Chem@@ 216
Klima@@ 216
Lei@@ 216
Ok, 216
Stand@@ 216
ario. 216
c'erano 216
eht 216
ere, 216
ero@@ 216
fav@@ 216
hatten, 216
hil@@ 216
kann@@ 216
keit@@ 216
kor@@ 216
legger@@ 216
nahm 216
recht@@ 216
stesse 216
tecnologie 216
venire 216
visu@@ 216
Haus 215
Pf@@ 215
altro, 215
chen@@ 215
essero 215
estrem@@ 215
fanden 215
hatten. 215
iv@@ 215
modo, 215
nachzu@@ 215
pensate 215
risolvere 215
sapete 215
schli@@ 215
schwar@@ 215
sionen 215
soff@@ 215
sugger@@ 215
unglaublich 215
welches 215
Geg@@ 214
comportamento 214
disc@@ 214
erlaub@@ 214
genere 214
gruppi 214
letter@@ 214
liebe 214
mini@@ 214
persino 214
schaff@@ 214
scritt@@ 214
soprav@@ 214
stamp@@ 214
unque 214
vorher@@ 214
zentr@@ 214
Africa 213
Besch@@ 213
Jahren, 213
Tal@@ 213
anderer 213
disponi@@ 213
eri 213
kennen 213
qualc@@ 213
registr@@ 213
serve 213
sf@@ 213
siv@@ 213
yp@@ 213
0% 212
Architek@@ 212
Jo@@ 212
Tages 212
Tex@@ 212
ahl@@ 212
cic@@ 212
disse 212
erten 212
merk@@ 212
passare 212
passo 212
pezzo 212
rebbe 212
sagt, 212
semplic@@ 212
stare 212
sten, 212
vede 212
Bra@@ 211
Geh@@ 211
Mark@@ 211
Unterschied 211
angen@@ 211
ario, 211
edere 211
esper@@ 211
fre@@ 211
frequ@@ 211
ista 211
itiv@@ 211
minut@@ 211
origin@@ 211
osped@@ 211
r. 211
schlag@@ 211
settiman@@ 211
ult@@ 211
," 210
Angel@@ 210
Beispiel@@ 210
Gre@@ 210
Hilfe 210
Spiel 210
alta 210
attenzione 210
aub@@ 210
cib@@ 210
dico 210
eff@@ 210
eng@@ 210
giovani 210
govern@@ 210
helfen 210
iert, 210
imenti 210
isco 210
lam@@ 210
movimento 210
music@@ 210
niemals 210
notizi@@ 210
omen 210
parlando 210
parlato 210
sec@@ 210
sed@@ 210
siert 210
solito 210
zio 210
ales 209
ar, 209
beste 209
dici@@ 209
komplex@@ 209
land 209
plan@@ 209
propri@@ 209
scher@@ 209
statt 209
strumento 209
tagli@@ 209
voi, 209
70 208
Hy@@ 208
andel 208
kleines 208
mani@@ 208
ni. 208
ritt@@ 208
teoria 208
vivono 208
voi. 208
"M@@ 207
12@@ 207
Alle 207
Beweg@@ 207
Einige 207
Erst@@ 207
Fot@@ 207
Tage 207
ab, 207
abili 207
bauen, 207
cosa, 207
dachte, 207
enh@@ 207
entwickelt 207
farlo. 207
genau@@ 207
lo. 207
ort 207
rispost@@ 207
sorprend@@ 207
sorta 207
vide@@ 207
vor. 207
wass@@ 207
wollten 207
Cl@@ 206
Namen 206
Secon@@ 206
Tit@@ 206
Wil@@ 206
Win@@ 206
anges@@ 206
arbeiten. 206
aw@@ 206
benef@@ 206
betra@@ 206
bezahl@@ 206
brev@@ 206
deshalb 206
euer 206
f, 206
forma@@ 206
ismus 206
mussten 206
nahme 206
ron@@ 206
versuchen, 206
zweite 206
Chi 205
Oggi 205
Sinn@@ 205
abit@@ 205
adatt@@ 205
ana, 205
auch, 205
bat@@ 205
eit 205
eller 205
etr@@ 205
ex 205
flieg@@ 205
ing. 205
modell@@ 205
nessun 205
physi@@ 205
situ@@ 205
sosteni@@ 205
tar@@ 205
unglaub@@ 205
vero, 205
ys 205
zeu@@ 205
Art, 204
Cina 204
Ihrer 204
avrebbero 204
bar. 204
costruito 204
determin@@ 204
elektr@@ 204
etro 204
ig 204
itto 204
nen, 204
passiert, 204
pazienti 204
riusci@@ 204
scheint 204
sieht, 204
tiamo 204
venne 204
vicin@@ 204
woh@@ 204
Sehen 203
Thema 203
Von 203
Woche 203
aree 203
aria. 203
bringt 203
chio 203
donn@@ 203
dovete 203
fatta 203
genauso 203
inst@@ 203
mark@@ 203
micro@@ 203
omb@@ 203
sie. 203
Sal@@ 202
Schauen 202
Seit@@ 202
Vorrei 202
ana. 202
area 202
arg@@ 202
aten, 202
chiunque 202
isol@@ 202
lig 202
merc@@ 202
ricord@@ 202
salute 202
wurden. 202
Design@@ 201
Et@@ 201
Kapit@@ 201
Okay, 201
Yor@@ 201
beide 201
darum, 201
endo. 201
entrare 201
folg@@ 201
mag 201
nis@@ 201
oren 201
piel@@ 201
risorse 201
sentir@@ 201
unten 201
via. 201
volete 201
wil@@ 201
C'@@ 200
Frau@@ 200
Jeder 200
Mikro@@ 200
Ok@@ 200
Pot@@ 200
at, 200
behandel@@ 200
brachte 200
daraus 200
e! 200
ehen, 200
endes 200
errei@@ 200
ingegner@@ 200
ini, 200
pericol@@ 200
posta 200
ppi@@ 200
quell@@ 200
scala 200
schaffen. 200
separ@@ 200
statt@@ 200
testa 200
valore 200
wend@@ 200
will@@ 200
16 199
90 199
Not@@ 199
Op@@ 199
Res@@ 199
ard 199
eden 199
ensch@@ 199
farma@@ 199
funktioniert. 199
icol@@ 199
impegn@@ 199
ino, 199
magari 199
oso, 199
reden 199
riguarda 199
sosten@@ 199
vite 199
Eff@@ 198
Physi@@ 198
deck@@ 198
eter@@ 198
genitori 198
hoch 198
lung 198
mettono 198
pe@@ 198
provare 198
speriment@@ 198
zehn 198
zu. 198
Beh@@ 197
Hinter@@ 197
Krebs 197
Test@@ 197
Verbindung 197
adi@@ 197
alles, 197
arriva 197
assist@@ 197
c'@@ 197
discorso 197
eile 197
flus@@ 197
guadagn@@ 197
id@@ 197
loro, 197
olo. 197
permette 197
pochi 197
quant@@ 197
reib@@ 197
sac@@ 197
sicurezza 197
soziale 197
stim@@ 197
tig. 197
un'idea 197
uss 197
Elektr@@ 196
ade@@ 196
agricol@@ 196
avesse 196
aziende 196
costo 196
davon, 196
decis@@ 196
eigen@@ 196
ella 196
ett 196
glauben 196
grupp@@ 196
mente, 196
miteinander 196
nucle@@ 196
raff@@ 196
ranno 196
serv@@ 196
stru@@ 196
tempor@@ 196
zuvor 196
zza 196
Ku@@ 195
Oze@@ 195
Sprach@@ 195
aum@@ 195
bemerk@@ 195
bring@@ 195
carb@@ 195
condividere 195
das@@ 195
le, 195
mani 195
superi@@ 195
tav@@ 195
ucc@@ 195
uns@@ 195
verbreit@@ 195
"W@@ 194
Erfahrung 194
Fortsch@@ 194
Lehrer 194
Th@@ 194
Tre@@ 194
aio 194
arle 194
assu@@ 194
campi@@ 194
ci. 194
cuore 194
evole 194
pad@@ 194
realmente 194
rius@@ 194
sub@@ 194
verdi@@ 194
wart@@ 194
zuneh@@ 194
Ban@@ 193
Flugzeu@@ 193
Freun@@ 193
Objek@@ 193
absolut 193
altern@@ 193
blick@@ 193
dank@@ 193
das? 193
distribu@@ 193
effici@@ 193
einfache 193
ezion@@ 193
iniziare 193
is, 193
nung 193
tivi 193
ton@@ 193
tot@@ 193
vir@@ 193
Dunque 192
India 192
Neur@@ 192
Pi@@ 192
Ros@@ 192
Wochen 192
Zei@@ 192
bauen. 192
bleib@@ 192
disse: 192
eni 192
heut@@ 192
nenn@@ 192
oggetto 192
opp@@ 192
produzione 192
salv@@ 192
sanit@@ 192
soll 192
wider@@ 192
Gesetz@@ 191
Ira@@ 191
On@@ 191
Ster@@ 191
Vereinigten 191
Zeu@@ 191
ande 191
asch@@ 191
domin@@ 191
edia 191
erv@@ 191
f. 191
gebaut 191
gesagt 191
impatto 191
konzentri@@ 191
mb@@ 191
nessuna 191
pil@@ 191
ppure 191
propri 191
sping@@ 191
unque, 191
volont@@ 191
zone 191
zus@@ 191
A. 190
Bri@@ 190
Comput@@ 190
Sor@@ 190
complic@@ 190
einzu@@ 190
forte 190
gab@@ 190
immagine 190
infin@@ 190
inser@@ 190
kurz@@ 190
lok@@ 190
male 190
mass@@ 190
me@@ 190
morte 190
motiv@@ 190
neues 190
oggetti 190
relazione 190
ack 189
basso 189
benutzen 189
dazu, 189
discus@@ 189
ehen. 189
einig@@ 189
erkennen, 189
ese. 189
hinter@@ 189
problema. 189
prof@@ 189
scri@@ 189
AID@@ 188
Desig@@ 188
Kat@@ 188
Mus@@ 188
bili. 188
bre@@ 188
comune 188
crimin@@ 188
eins 188
famili@@ 188
getan 188
hl@@ 188
komplett 188
ricev@@ 188
scoper@@ 188
segret@@ 188
sicuro 188
ut 188
y: 188
zin@@ 188
And@@ 187
Col@@ 187
Pal@@ 187
Wahl@@ 187
Wort@@ 187
achten 187
commerci@@ 187
dita 187
gam@@ 187
nennen 187
ond@@ 187
sanno 187
schaft. 187
sette 187
sole 187
ts@@ 187
voller 187
G: 186
Jung@@ 186
Kunst@@ 186
Mik@@ 186
Ne 186
Schritt 186
Team 186
analizz@@ 186
cervello. 186
cita 186
dam@@ 186
dass, 186
diverso 186
ecchi@@ 186
fru@@ 186
helfen, 186
hing@@ 186
ick 186
macht, 186
ol 186
pratica 186
raccon@@ 186
riguardo 186
rilev@@ 186
spielen 186
ste, 186
terzo 186
tum@@ 186
uren 186
Reihe 185
Sign@@ 185
Wissenschaft@@ 185
abile. 185
cambiamenti 185
cher@@ 185
das. 185
den? 185
diag@@ 185
estern@@ 185
kte 185
l'inter@@ 185
libr@@ 185
medizin@@ 185
neanche 185
pensa 185
produrre 185
selbst@@ 185
spann@@ 185
tigkeit 185
vert@@ 185
Gott 184
Jahren. 184
Kno@@ 184
Ton@@ 184
combin@@ 184
dag@@ 184
din@@ 184
forsch@@ 184
grundleg@@ 184
lernen, 184
maggiore 184
ricer@@ 184
simile 184
sonst 184
standen 184
stri@@ 184
us. 184
vero. 184
Alcuni 183
Augen@@ 183
Eig@@ 183
Gegen@@ 183
Pu@@ 183
Technologien 183
atte 183
atten@@ 183
besu@@ 183
cant@@ 183
erw@@ 183
ezza, 183
fehl@@ 183
gewinn@@ 183
immaginare 183
krank@@ 183
lavorato 183
libri 183
macht. 183
nachdem 183
ografi@@ 183
piant@@ 183
sagt: 183
wohn@@ 183
-B@@ 182
Autos 182
Fisch@@ 182
Freunde 182
anal@@ 182
attravers@@ 182
bekommen, 182
eder 182
ener@@ 182
fang@@ 182
incredibile 182
izione 182
langsam@@ 182
lie@@ 182
nulla 182
os, 182
pieg@@ 182
re. 182
rispon@@ 182
scienziati 182
sfor@@ 182
sto@@ 182
tutti. 182
Arz@@ 181
Kultur@@ 181
Lag@@ 181
Nat@@ 181
Prima 181
aggiung@@ 181
and. 181
anten@@ 181
effetti, 181
erkann@@ 181
ese, 181
gi 181
ific@@ 181
moral@@ 181
progetti 181
sempr@@ 181
soluzione 181
stamm@@ 181
will, 181
"T@@ 180
24 180
He@@ 180
Krei@@ 180
Mass@@ 180
Medik@@ 180
Nord@@ 180
Them@@ 180
Vorstell@@ 180
accesso 180
accia 180
arne 180
brill@@ 180
e", 180
effetto 180
esiste 180
gegen@@ 180
herum@@ 180
importante. 180
industria 180
lato 180
ness@@ 180
ot 180
profession@@ 180
sozialen 180
sterb@@ 180
termin@@ 180
valut@@ 180
verstehen. 180
zur@@ 180
Denk@@ 179
Mentre 179
Universu@@ 179
ahr 179
dra@@ 179
fare, 179
kop@@ 179
nehmen. 179
off 179
olo, 179
tutto. 179
unt@@ 179
vale 179
viaggio 179
west@@ 179
Alla 178
Alles 178
Erd@@ 178
Glob@@ 178
Ir@@ 178
Kultur 178
Lond@@ 178
Luft 178
Teile 178
Zahl 178
Ziel 178
ast 178
bein@@ 178
essione 178
ge. 178
ini. 178
lavorando 178
leader 178
ogen 178
perch@@ 178
pers@@ 178
quad@@ 178
risult@@ 178
scom@@ 178
sicht 178
ument@@ 178
All 177
Ern@@ 177
Geb@@ 177
Gebur@@ 177
Pass@@ 177
amico 177
anden 177
eln. 177
etti, 177
incredi@@ 177
letz@@ 177
pac@@ 177
programm@@ 177
raggiungere 177
scal@@ 177
schle@@ 177
struttur@@ 177
tradizion@@ 177
zeigen. 177
zusamm@@ 177
Bewegung 176
Cent@@ 176
Hoch@@ 176
Interess@@ 176
Liebe 176
Nicht@@ 176
a?" 176
amore 176
atur 176
bekommen. 176
casa. 176
eben. 176
egu@@ 176
entschei@@ 176
euer@@ 176
fur@@ 176
gaben 176
identific@@ 176
importante, 176
iva 176
matemat@@ 176
materiale 176
movi@@ 176
o; 176
reale 176
settimana 176
suffici@@ 176
zeige 176
197@@ 175
Anzahl 175
Komm@@ 175
Leben. 175
Mess@@ 175
No@@ 175
Oh, 175
Prozess 175
Rest 175
Wissenschaftler 175
Zusamm@@ 175
ai, 175
aktiv@@ 175
ance 175
ane@@ 175
asp@@ 175
bewer@@ 175
bisogna 175
consu@@ 175
darum 175
die, 175
dovrebbero 175
nam@@ 175
spricht 175
ums 175
wichtige 175
"Was 174
Flu@@ 174
Gedanken 174
Herausforder@@ 174
Kohl@@ 174
Mann@@ 174
Typ@@ 174
anstatt 174
ationen, 174
aufen 174
azienda 174
chi. 174
lus@@ 174
modelli 174
molta 174
omat@@ 174
po. 174
prende 174
ragazzo 174
wen@@ 174
Can@@ 173
Cre@@ 173
Dio 173
Isra@@ 173
Jahrzehn@@ 173
K: 173
San 173
Zentr@@ 173
attacc@@ 173
bestimmten 173
echte 173
emis@@ 173
figli 173
fragte 173
guten 173
hiel@@ 173
mittel 173
oppure 173
prima. 173
rifi@@ 173
stavano 173
tecn@@ 173
terror@@ 173
-S@@ 172
As@@ 172
Ci@@ 172
Inn@@ 172
Meinung 172
Nur 172
Rich@@ 172
cot@@ 172
divers@@ 172
gang@@ 172
gefunden 172
hunder@@ 172
ktion@@ 172
kultur@@ 172
lett@@ 172
licht 172
numer@@ 172
occident@@ 172
sero 172
sicher, 172
sieben 172
societ@@ 172
statist@@ 172
teri@@ 172
vostre 172
America 171
Entscheidungen 171
Gar@@ 171
Krieg 171
Modell 171
My@@ 171
Schn@@ 171
Wirk@@ 171
casa, 171
chi, 171
esimo 171
estremamente 171
gingen 171
ismus@@ 171
tausende 171
teil 171
terren@@ 171
univers@@ 171
voce 171
wur@@ 171
zeich@@ 171
zut@@ 171
Americ@@ 170
Dank@@ 170
Gemeinschaft 170
Gesundheits@@ 170
Lin@@ 170
Platz 170
Produk@@ 170
Stiamo 170
Video 170
Wahr@@ 170
Zellen 170
ada 170
bellissi@@ 170
betracht@@ 170
brut@@ 170
cerca 170
climat@@ 170
druck 170
entfern@@ 170
handel@@ 170
iche. 170
istru@@ 170
km 170
legge 170
lizz@@ 170
na 170
nonn@@ 170
oma 170
pe 170
quadr@@ 170
usano 170
verr@@ 170
vorzu@@ 170
Richtung 169
Sem@@ 169
Sicherheit 169
Telef@@ 169
afric@@ 169
class@@ 169
concetto 169
dann, 169
echten 169
fatto. 169
gebau@@ 169
genu@@ 169
giusto? 169
hoh@@ 169
ine, 169
informazione 169
into 169
kommt. 169
lont@@ 169
multi@@ 169
salut@@ 169
sogn@@ 169
subito 169
temper@@ 169
trovano 169
wichtig, 169
Auch 168
Immaginate 168
Ko@@ 168
Terror@@ 168
a... 168
attac@@ 168
besteht 168
bitte 168
blick 168
dio 168
fizier@@ 168
futuro. 168
geda@@ 168
gemeinsam@@ 168
herum 168
ine. 168
interessier@@ 168
interpret@@ 168
nuov@@ 168
nutzen, 168
plast@@ 168
schwierig@@ 168
sehe 168
tale 168
vest@@ 168
virus 168
zell@@ 168
Foto 167
Galax@@ 167
Ob@@ 167
Rau@@ 167
Wohn@@ 167
ade 167
arlo. 167
ater 167
emente, 167
en" 167
endo, 167
entro 167
falsch 167
fico 167
fing 167
intu@@ 167
leggere 167
lief@@ 167
macchine 167
pir@@ 167
ricordo 167
tik@@ 167
vern@@ 167
zona 167
An 166
Dem@@ 166
Dunque, 166
Licht@@ 166
Netzwer@@ 166
Regier@@ 166
Situation 166
asso@@ 166
autom@@ 166
bella 166
chied@@ 166
cosi@@ 166
devi 166
diventato 166
endono 166
generazione 166
io@@ 166
kleiner 166
komplizier@@ 166
le. 166
nuovo, 166
ognuno 166
oni, 166
potreste 166
raft 166
tragen 166
unci@@ 166
z. 166
Del@@ 165
Essen 165
Farb@@ 165
Terra 165
Wass@@ 165
Wirtschaft 165
Zu 165
confer@@ 165
eben, 165
effek@@ 165
esplor@@ 165
essenzi@@ 165
etti. 165
hier. 165
libri@@ 165
liegen 165
mache 165
oggi@@ 165
petrolio 165
sfi@@ 165
suono 165
tivi@@ 165
urban@@ 165
verwenden 165
volle 165
A-@@ 164
Aktiv@@ 164
Do@@ 164
Oper@@ 164
S. 164
ativ 164
bald 164
ball@@ 164
bessere 164
cattiv@@ 164
daher 164
ezza. 164
grat@@ 164
ierten 164
letto 164
momento, 164
ni 164
normale 164
presa 164
richtig@@ 164
rifer@@ 164
sah@@ 164
util@@ 164
weltweit 164
wurden, 164
z, 164
Pen@@ 163
Sapete, 163
Wahrheit 163
Zell@@ 163
acqua, 163
aggio, 163
basier@@ 163
copi@@ 163
fer 163
gas 163
gio 163
giov@@ 163
inform@@ 163
langen 163
leicht 163
line@@ 163
mette 163
parol@@ 163
passiert. 163
prezz@@ 163
seg@@ 163
tess@@ 163
ume 163
uno, 163
"E@@ 162
196@@ 162
Cit@@ 162
Coll@@ 162
Dingen 162
Erinner@@ 162
Fak@@ 162
Geschichte. 162
Job@@ 162
Lieb@@ 162
Musi@@ 162
Studenten 162
alter 162
ater@@ 162
cambiato 162
chiamiamo 162
condizioni 162
dicendo 162
einzelne 162
entemente 162
formazione 162
gel 162
gend 162
genit@@ 162
gesamte 162
ingt 162
junge 162
linguaggio 162
metri 162
muss, 162
politica 162
prigi@@ 162
progr@@ 162
remmo 162
satz@@ 162
scon@@ 162
sog@@ 162
tern, 162
tiene 162
trasfer@@ 162
25@@ 161
Beziehung 161
Ec@@ 161
Lui 161
Publikum 161
acqua. 161
ambient@@ 161
amerikanischen 161
automat@@ 161
dava 161
eilen 161
entschi@@ 161
essen. 161
hen 161
laboratorio 161
polizi@@ 161
potenzi@@ 161
quar@@ 161
sau@@ 161
scatt@@ 161
sic@@ 161
tiger 161
unden. 161
versione 161
wand@@ 161
za 161
13 160
17 160
Adesso 160
Blut@@ 160
Fri@@ 160
Gei@@ 160
Jahrhundert 160
Sonn@@ 160
Stimm@@ 160
Wo 160
Wol@@ 160
affer@@ 160
alber@@ 160
andati 160
bitt@@ 160
coloro 160
consapevol@@ 160
deine 160
dip@@ 160
ement@@ 160
eravamo 160
etri 160
gleichzeitig 160
kam, 160
konnte. 160
numeri 160
oria 160
particol@@ 160
pros@@ 160
ricerc@@ 160
riff 160
schied@@ 160
sfida 160
sozi@@ 160
stark 160
system@@ 160
uto. 160
zuerst 160
Anal@@ 159
Arbeits@@ 159
Blick 159
Eines 159
Famili@@ 159
Forschung 159
Ihnen, 159
Mom@@ 159
Nacht 159
Roll@@ 159
Rus@@ 159
Tra@@ 159
Tro@@ 159
Wes@@ 159
Wieder@@ 159
Zugang 159
altri. 159
ats@@ 159
camp@@ 159
colo 159
einge@@ 159
fate 159
igen, 159
ihres 159
mehr@@ 159
modo. 159
nov@@ 159
online 159
possibile. 159
sch 159
schrieb 159
succeden@@ 159
superficie 159
teilen 159
uch@@ 159
umin@@ 159
17@@ 158
Dok@@ 158
H: 158
Invest@@ 158
Labor 158
Los 158
Metho@@ 158
Richard 158
Rob@@ 158
Staaten 158
Sym@@ 158
Wohl@@ 158
besitz@@ 158
erhalten 158
erie 158
europ@@ 158
glichen 158
iche, 158
kan@@ 158
lasciato 158
madr@@ 158
preced@@ 158
rischio 158
sofort 158
strutture 158
successi@@ 158
tutt@@ 158
wie@@ 158
zu, 158
"Wir 157
Aufgab@@ 157
Beispiel, 157
Bot@@ 157
Freu@@ 157
Freund 157
Generation 157
Leist@@ 157
Robo@@ 157
Stimme 157
Un'@@ 157
allein 157
angen 157
associ@@ 157
bliot@@ 157
caso, 157
conoscenza 157
dungen 157
erfol@@ 157
globalen 157
h. 157
hast 157
ia, 157
internation@@ 157
jem@@ 157
l'acqua 157
ni, 157
non@@ 157
orig@@ 157
quanti 157
ripet@@ 157
sb@@ 157
Allora, 156
Boden 156
Gest@@ 156
Hau@@ 156
Idee, 156
Kreb@@ 156
Ox@@ 156
Posi@@ 156
Rolle 156
S: 156
Sache, 156
Sap@@ 156
Studie 156
Umgebung 156
ange 156
ariamente 156
ateg@@ 156
batt@@ 156
beginnen 156
canz@@ 156
compagn@@ 156
dann@@ 156
impieg@@ 156
incredibilmente 156
materiali 156
messaggio 156
mmer 156
pensiero 156
piedi 156
posit@@ 156
prossimo 156
ruolo 156
sensi@@ 156
sprach@@ 156
studi 156
ugu@@ 156
versucht 156
vuol 156
Firma 155
Gewalt 155
Grund, 155
Mensch 155
Tel@@ 155
Ti@@ 155
Waff@@ 155
ame 155
attu@@ 155
bereit 155
bist 155
breve 155
carta 155
danno 155
erforsch@@ 155
frage 155
gebra@@ 155
gewal@@ 155
grazi@@ 155
ligen 155
mus 155
ona 155
osservare 155
percento 155
poll@@ 155
prova 155
psic@@ 155
rad@@ 155
rein@@ 155
ricevuto 155
sil@@ 155
sist@@ 155
sociale 155
400 154
:@@ 154
Entdeck@@ 154
Gedank@@ 154
Guar@@ 154
Innov@@ 154
Mis@@ 154
Paul 154
Person@@ 154
Psych@@ 154
Sicher@@ 154
Sinn 154
approccio 154
arbeit 154
casi 154
coltiv@@ 154
daten 154
fece 154
heits@@ 154
immer@@ 154
invit@@ 154
jemanden 154
no? 154
onder@@ 154
pensano 154
perfek@@ 154
prime 154
realizzare 154
richtigen 154
stori@@ 154
verwandel@@ 154
voleva 154
Ad 153
Bedeutung 153
Molti 153
Schwar@@ 153
Vort@@ 153
abzu@@ 153
ama 153
betr@@ 153
consegu@@ 153
cosci@@ 153
crescere 153
dete 153
drog@@ 153
emozion@@ 153
entw@@ 153
eucht@@ 153
gefrag@@ 153
gegeben 153
geschlos@@ 153
ieb@@ 153
klar, 153
lage 153
luoghi 153
quarti@@ 153
recent@@ 153
redu@@ 153
singolo 153
unit@@ 153
vive 153
viver@@ 153
win@@ 153
2000 152
Des@@ 152
Einzel@@ 152
Ord@@ 152
Reise 152
Uniti, 152
Verbin@@ 152
aggio. 152
alten. 152
ask@@ 152
atz 152
azi@@ 152
compon@@ 152
costa 152
danach 152
dimensioni 152
divi@@ 152
ege 152
evoluzione 152
furono 152
ie. 152
inare 152
ire, 152
iz@@ 152
minim@@ 152
mostrare 152
null@@ 152
oto 152
petrol@@ 152
poi, 152
richtige 152
settore 152
stanza 152
student@@ 152
%. 151
16@@ 151
Amer@@ 151
Computer@@ 151
Dic@@ 151
Gesundheit 151
Pe@@ 151
Problem. 151
Programm@@ 151
Schmer@@ 151
Wert 151
ald 151
anten 151
beschlos@@ 151
confron@@ 151
dere. 151
entwickeln 151
fen@@ 151
ftwar@@ 151
gemacht, 151
gesetzt 151
giusto 151
invi@@ 151
lor@@ 151
perio@@ 151
perso 151
potevano 151
rivoluzione 151
roh@@ 151
sagten 151
schneller 151
solchen 151
verbr@@ 151
zogen 151
Daten@@ 150
Far@@ 150
Fern@@ 150
Gebi@@ 150
Gem@@ 150
Kam@@ 150
Nella 150
Sy@@ 150
Vorstellung 150
Zeit. 150
am, 150
ancora, 150
cert@@ 150
femmin@@ 150
figlio 150
gut, 150
hi, 150
iker 150
illeg@@ 150
indic@@ 150
ine@@ 150
inner@@ 150
molec@@ 150
ogg@@ 150
prod@@ 150
setzen, 150
sollte. 150
sov@@ 150
succe@@ 150
usiamo 150
vorstellen, 150
worden 150
"La 149
4, 149
Cos@@ 149
Ins@@ 149
Kommunik@@ 149
Mot@@ 149
Muster 149
Technik 149
Zahlen 149
arie 149
bewegen 149
bildung 149
dan@@ 149
dicev@@ 149
dollari. 149
emand 149
erebbe 149
erwar@@ 149
ie, 149
lent@@ 149
manche 149
o! 149
omo 149
raggiung@@ 149
regole 149
senti@@ 149
sociali 149
sugli 149
vinc@@ 149
Geheim@@ 148
L: 148
Pat@@ 148
Religi@@ 148
Risik@@ 148
Selbst 148
Solo 148
Sper@@ 148
affi@@ 148
alle, 148
appren@@ 148
are? 148
aria, 148
atmos@@ 148
aufgrund 148
beschreib@@ 148
dat@@ 148
dopp@@ 148
einzelnen 148
elim@@ 148
ester 148
fisica 148
fliegen 148
gesamten 148
guardando 148
hau@@ 148
herauszufinden, 148
is. 148
kin@@ 148
letzt@@ 148
lige 148
migliorare 148
ms 148
praticamente 148
psych@@ 148
scienti@@ 148
studiare 148
sur@@ 148
uffici@@ 148
umana 148
vertr@@ 148
wenig@@ 148
Amei@@ 147
Ander@@ 147
Avete 147
Blu@@ 147
CO@@ 147
Da@@ 147
Fing@@ 147
Glaub@@ 147
Taus@@ 147
abbiano 147
besser@@ 147
cominciare 147
comunque 147
dice: 147
elev@@ 147
em, 147
eno 147
erkennen 147
ettiv@@ 147
faceva 147
fum@@ 147
geleg@@ 147
gesehen, 147
hy@@ 147
ia. 147
lingua 147
mostrato 147
ne, 147
och 147
our@@ 147
potesse 147
roba 147
schri@@ 147
secolo 147
tun? 147
0.000 146
Einst@@ 146
Internet@@ 146
Nein, 146
Tod 146
Umwelt@@ 146
assi 146
bekam 146
bisogn@@ 146
bt 146
chem@@ 146
conserv@@ 146
coper@@ 146
elettric@@ 146
enni@@ 146
ens. 146
evit@@ 146
fach@@ 146
grund 146
ie@@ 146
lasciare 146
lunga 146
meist@@ 146
mod@@ 146
parole, 146
pianeta. 146
prima, 146
punkt 146
reck@@ 146
salvare 146
seite 146
sind@@ 146
storia, 146
ungsk@@ 146
we@@ 146
wusste 146
1, 145
Goog@@ 145
Maschin@@ 145
Mitte 145
Pil@@ 145
Schri@@ 145
Sig@@ 145
Zukun@@ 145
abbandon@@ 145
allen@@ 145
assero 145
atori, 145
avvicin@@ 145
cen@@ 145
distru@@ 145
entweder 145
fangen, 145
fron@@ 145
gemeinsam 145
gut@@ 145
ite. 145
machten 145
mmer@@ 145
ovvi@@ 145
problema, 145
pur@@ 145
quindi, 145
rieben 145
sam 145
scienzi@@ 145
sento 145
sowohl 145
stehen. 145
All'@@ 144
App@@ 144
HIV@@ 144
Mach@@ 144
Meter 144
Mittel@@ 144
affront@@ 144
avremmo 144
cardi@@ 144
crea 144
d-@@ 144
devano 144
eck 144
esempi 144
fred@@ 144
l'ha 144
prezzo 144
probi@@ 144
prossimi 144
rapi@@ 144
ritorn@@ 144
sensazione 144
Kontrolle 143
Men@@ 143
Tief@@ 143
alten, 143
ant 143
arm@@ 143
bambini. 143
bir@@ 143
bur@@ 143
chia 143
chiave 143
continuare 143
dent 143
dice, 143
disse, 143
eci 143
esti 143
faszinier@@ 143
fte 143
mappa 143
muss. 143
neben 143
notte 143
offen@@ 143
parte, 143
preci@@ 143
provato 143
scientific@@ 143
scorso 143
sim@@ 143
spettac@@ 143
stag@@ 143
top@@ 143
ultima 143
violenza 143
weltwei@@ 143
wichtiger 143
wuch@@ 143
"Oh, 142
Ac@@ 142
Amerika 142
Bed@@ 142
Gelegen@@ 142
Karte 142
Lern@@ 142
Nachbar@@ 142
Sach@@ 142
Technologi@@ 142
arre 142
ba@@ 142
breit@@ 142
digen 142
diverso. 142
echt 142
ema 142
emi 142
enzen 142
giovane 142
hat@@ 142
intell@@ 142
iti, 142
konnte, 142
malattia 142
matematica 142
milit@@ 142
obiettivo 142
oder? 142
oni. 142
onia 142
osci@@ 142
perfett@@ 142
piatt@@ 142
produzier@@ 142
prossima 142
risp@@ 142
sembrano 142
soltanto 142
superfic@@ 142
wissenschaft@@ 142
0ern 141
2. 141
Betra@@ 141
Chr@@ 141
Gesund@@ 141
Li 141
Spi@@ 141
The@@ 141
]@@ 141
anf@@ 141
beginnt 141
bestimmte 141
crisi 141
diejen@@ 141
eht, 141
eleg@@ 141
entrambi 141
falli@@ 141
fos@@ 141
gt, 141
i: 141
icare 141
immedi@@ 141
ioni 141
malatti@@ 141
medicin@@ 141
obi@@ 141
ovviamente 141
sagen. 141
settimane 141
sing@@ 141
succeder@@ 141
testen 141
tramite 141
uno. 141
uns. 141
versteh@@ 141
wechsel@@ 141
zusammen. 141
Cam@@ 140
Demokratie 140
Hol@@ 140
Leben, 140
Preis 140
Problem, 140
Publik@@ 140
Tu@@ 140
Ven@@ 140
chie 140
cito 140
gil@@ 140
her, 140
ich. 140
ien 140
is 140
letteralmente 140
mehr. 140
milione 140
mondi@@ 140
naturale 140
osa. 140
prei@@ 140
que 140
s: 140
sala 140
setzen. 140
stes 140
tempi 140
tocc@@ 140
unica 140
vier@@ 140
zog@@ 140
8, 139
Lei 139
Wahrschein@@ 139
abitu@@ 139
ar. 139
credi@@ 139
einzi@@ 139
film@@ 139
fragen, 139
idea. 139
inizia 139
komme 139
l'abbiamo 139
lose 139
omos@@ 139
prend@@ 139
quotidi@@ 139
reso 139
rie@@ 139
scuole 139
sodass 139
soddis@@ 139
sopr@@ 139
stehen, 139
suchen 139
traff@@ 139
tur 139
venti 139
wachsen 139
zumindest 139
Aspek@@ 138
Damit 138
Em@@ 138
Leg@@ 138
Papi@@ 138
Prog@@ 138
Struktur@@ 138
Tat 138
Wett@@ 138
a; 138
ass 138
cercato 138
cort@@ 138
destr@@ 138
ebbero 138
eme 138
foc@@ 138
gesetz@@ 138
getro@@ 138
hinzu@@ 138
icht, 138
irgendwo 138
laufen 138
lebt 138
ler, 138
ologen 138
permetter@@ 138
radic@@ 138
rech@@ 138
sagten: 138
scelta 138
schreiben 138
tern. 138
terza 138
the 138
uzione 138
vero? 138
w. 138
wandel@@ 138
zon@@ 138
Bur@@ 137
Fu@@ 137
Gesicht 137
Markt 137
Mos@@ 137
Ovvi@@ 137
Richt@@ 137
Sau@@ 137
Vier@@ 137
accade 137
archit@@ 137
are@@ 137
argom@@ 137
ave 137
bot@@ 137
darauf, 137
desto 137
elle, 137
gesell@@ 137
insieme. 137
integ@@ 137
ione 137
l'unico 137
lau@@ 137
raggiun@@ 137
ritrov@@ 137
semplice. 137
soprattutto 137
sviluppare 137
tiv 137
ungss@@ 137
visit@@ 137
winzi@@ 137
wusst@@ 137
zo@@ 137
"B@@ 136
2,@@ 136
Dr. 136
Geschichte, 136
HIV 136
Inst@@ 136
Kamer@@ 136
Kind@@ 136
Kinder, 136
Kosten 136
Negli 136
Off@@ 136
bambini, 136
bekannt 136
bewusst 136
bro@@ 136
cervello, 136
creativ@@ 136
denaro 136
effizi@@ 136
enden, 136
erin 136
fond@@ 136
gewi@@ 136
keiten, 136
kun@@ 136
lesen 136
mostrarvi 136
nost@@ 136
ordn@@ 136
otter@@ 136
prakt@@ 136
princip@@ 136
relazioni 136
ri, 136
stimol@@ 136
tig, 136
tz@@ 136
univer@@ 136
vill@@ 136
Alter 135
Bal@@ 135
Ergebnis 135
Frage, 135
Gh@@ 135
Hilf@@ 135
Information 135
Je@@ 135
Kraft 135
Mart@@ 135
Organ@@ 135
Revolution 135
Sicht 135
Tor@@ 135
adul@@ 135
anden, 135
bili, 135
cancr@@ 135
comincia 135
denti 135
esi, 135
ettu@@ 135
ften 135
herzu@@ 135
ingen@@ 135
innovazione 135
insi@@ 135
ismo, 135
l'altro 135
piu' 135
salt@@ 135
senso, 135
sign@@ 135
stia 135
termine 135
tut 135
verteil@@ 135
Fu 134
Guardate 134
Koll@@ 134
Kont@@ 134
Maschine 134
Nig@@ 134
Q@@ 134
Struktur 134
Tur@@ 134
altri, 134
arbei@@ 134
bekommt 134
der. 134
doll@@ 134
eb 134
elementi 134
erreichen 134
eta 134
gol@@ 134
grund@@ 134
ispir@@ 134
isten 134
kaum 134
larg@@ 134
materia 134
mente. 134
muover@@ 134
obb@@ 134
parte. 134
precis@@ 134
preg@@ 134
ri. 134
stile 134
tecnologia, 134
tenere 134
tutti, 134
veg@@ 134
venuto 134
&amp@@ 133
Aufgabe 133
Bereich 133
Erfin@@ 133
Grenzen 133
Kra@@ 133
Nessuno 133
No, 133
Techni@@ 133
a! 133
aggiun@@ 133
akt 133
arab@@ 133
aufge@@ 133
bewus@@ 133
cervell@@ 133
chiu@@ 133
cio@@ 133
destra@@ 133
ekt@@ 133
era, 133
ey, 133
fahren, 133
idi@@ 133
intero 133
inu@@ 133
lieben 133
lista 133
nazion@@ 133
normalerweise 133
nur, 133
oco 133
os. 133
riesige 133
sich. 133
sostitu@@ 133
spiegare 133
te: 133
tiert 133
triff@@ 133
vedo 133
veniva 133
zen@@ 133
zweiten 133
Bill 132
Doll@@ 132
Fo@@ 132
Genau 132
Jon@@ 132
Kal@@ 132
Klass@@ 132
Menschen@@ 132
Milliar@@ 132
Nation@@ 132
Prozess@@ 132
annte 132
asc@@ 132
bru@@ 132
compas@@ 132
convers@@ 132
destra 132
doveva 132
gru@@ 132
ik 132
it 132
klar 132
modific@@ 132
mostra@@ 132
necessario 132
nutri@@ 132
porto 132
potenziale 132
programmi 132
quin@@ 132
riesce 132
robot@@ 132
schnitt 132
sessu@@ 132
soluzioni 132
sviluppato 132
trotzdem 132
ump@@ 132
uscire 132
uto, 132
wollte, 132
150 131
Bud@@ 131
Chri@@ 131
Fi@@ 131
GP@@ 131
Hig@@ 131
Liebling@@ 131
Ort, 131
Radi@@ 131
Rech@@ 131
a", 131
aben 131
abili@@ 131
alcun 131
cerebr@@ 131
comin@@ 131
contatto 131
cresc@@ 131
demi@@ 131
dettagli@@ 131
diritti 131
dito 131
einzigen 131
emotion@@ 131
inclu@@ 131
interessante. 131
keiten. 131
konnten. 131
lezione 131
mehrere 131
miglia 131
mille. 131
percorso 131
pfen 131
semplici 131
stai 131
volta. 131
wort@@ 131
3, 130
Beru@@ 130
Bezug 130
Daher 130
Danke 130
Det@@ 130
Einfluss 130
Fe@@ 130
Herr@@ 130
Individu@@ 130
Ki@@ 130
Krankheiten 130
Mich@@ 130
Pensate 130
Quad@@ 130
Schulen 130
andate 130
aren 130
civil@@ 130
contribu@@ 130
davon. 130
dedic@@ 130
dell@@ 130
ent, 130
esia 130
esistono 130
esta 130
gelang@@ 130
gutes 130
hatt@@ 130
influenz@@ 130
insegnanti 130
jungen 130
legen 130
mento. 130
mung 130
nis, 130
nonostante 130
ossia 130
partic@@ 130
personale 130
prendono 130
produk@@ 130
qualcos@@ 130
ridurre 130
schaf@@ 130
schlecht 130
schwierig 130
seltsam@@ 130
"J@@ 129
20. 129
7, 129
9, 129
A: 129
Bus@@ 129
Du@@ 129
Ereig@@ 129
Fer@@ 129
Gal@@ 129
Ident@@ 129
Intellig@@ 129
MI@@ 129
Michael 129
Modell@@ 129
Rest@@ 129
Stad@@ 129
Uhr 129
West@@ 129
animale 129
attorno 129
diventano 129
enne 129
erinnere 129
extr@@ 129
ezioni 129
farvi 129
felice 129
ger, 129
guter 129
helfen. 129
ieri 129
interesse 129
lavori 129
nero 129
nun, 129
occhio 129
organizzazione 129
passieren 129
pau@@ 129
pensando 129
profess@@ 129
pub@@ 129
ragazzi@@ 129
software 129
strum@@ 129
t." 129
tecnolog@@ 129
unge 129
vitti@@ 129
yl@@ 129
ze@@ 129
!@@ 128
Avevo 128
Bildung 128
Erano 128
Erfolg 128
Exper@@ 128
Frauen, 128
George 128
Gruppen 128
Harv@@ 128
Jap@@ 128
Karri@@ 128
Kop@@ 128
Qualcuno 128
Situ@@ 128
Sub@@ 128
Tim@@ 128
abilmente 128
aiuto 128
artist@@ 128
atten 128
ba 128
bero 128
dy@@ 128
effic@@ 128
ennen 128
entfernt 128
extrem 128
fir@@ 128
gezeigt 128
hielt 128
ita. 128
l'anno 128
langsam 128
niamo 128
parlav@@ 128
sfrutt@@ 128
sollten. 128
sour@@ 128
stol@@ 128
tele@@ 128
tiges 128
use 128
vedere, 128
voluto 128
wohl@@ 128
Armut 127
Beispiele 127
Imm@@ 127
Prob@@ 127
Quel 127
Quella 127
Sappiamo 127
Stat@@ 127
andata 127
antwort@@ 127
ascol@@ 127
aspetti 127
biet@@ 127
busin@@ 127
diventata 127
dot@@ 127
eur@@ 127
ff 127
finest@@ 127
gebor@@ 127
gewesen 127
glich@@ 127
halt 127
her. 127
krat@@ 127
lavorano 127
neun 127
o", 127
oltre, 127
qual 127
schn@@ 127
stig@@ 127
trei@@ 127
uov@@ 127
vari 127
vedrete 127
10.000 126
Luft@@ 126
Mal, 126
Medien 126
Sci@@ 126
US-@@ 126
ail 126
algorit@@ 126
all'inizio 126
anne 126
api 126
atori@@ 126
bin, 126
blo@@ 126
carbon@@ 126
direzione 126
eht. 126
einand@@ 126
fern@@ 126
gelernt 126
governi 126
haft 126
immag@@ 126
licherweise 126
magnet@@ 126
massa 126
potente 126
presente 126
profondit@@ 126
proz@@ 126
raccontare 126
reich 126
ril@@ 126
ritte 126
ritten 126
seit@@ 126
sieren 126
silenzi@@ 126
spavent@@ 126
spiega 126
stoff 126
toc@@ 126
vecchio 126
verific@@ 126
versucht, 126
weisen 126
wenige 126
Ahn@@ 125
Dinge. 125
Dritt@@ 125
Eg@@ 125
Herausforderung 125
Ih@@ 125
Jos@@ 125
Lauf@@ 125
Sin@@ 125
Sonne 125
Stamm@@ 125
Theorie 125
Vergangenheit 125
Wider@@ 125
ail@@ 125
americani 125
begannen 125
bre 125
dati, 125
democrazia 125
diesel@@ 125
dort@@ 125
edificio 125
ersch@@ 125
esp@@ 125
fant@@ 125
gi, 125
giochi 125
herr@@ 125
informat@@ 125
mettiamo 125
notwen@@ 125
pflanz@@ 125
riconos@@ 125
rischi@@ 125
sahen 125
schlechte 125
sente 125
setzt 125
simb@@ 125
tasso 125
telefon@@ 125
tol@@ 125
umor@@ 125
uscit@@ 125
verantwort@@ 125
verbunden 125
vot@@ 125
wissenschaf@@ 125
zellen 125
"D@@ 124
"Wie 124
Anti@@ 124
Dove 124
Energie@@ 124
Franc@@ 124
Krankheit 124
Letz@@ 124
Mann, 124
Orten 124
Pan@@ 124
Sa@@ 124
Son@@ 124
V 124
aktu@@ 124
amor@@ 124
arti 124
cambia 124
cru@@ 124
einfach. 124
erreichen. 124
esperi@@ 124
gent@@ 124
hel@@ 124
ingl@@ 124
ismo. 124
istruzione 124
kennen, 124
lit@@ 124
luog@@ 124
mart@@ 124
mese 124
momento. 124
nachhal@@ 124
overe 124
pall@@ 124
partire 124
pesce 124
plo@@ 124
quegli 124
sapevo 124
seines 124
sinistra 124
spielen. 124
treff@@ 124
vorher 124
"Die 123
45 123
Anwend@@ 123
Beginn 123
Californi@@ 123
Ding 123
Einer 123
Erfahr@@ 123
Juli@@ 123
Kol@@ 123
Lon@@ 123
Posso 123
Produkt 123
Statist@@ 123
TED-@@ 123
Wiss@@ 123
abet@@ 123
alt. 123
anci@@ 123
arbeitet 123
autor@@ 123
ax@@ 123
ay, 123
blu@@ 123
clin@@ 123
cono, 123
dati. 123
demo@@ 123
dere, 123
due, 123
dunk@@ 123
eci@@ 123
eco@@ 123
ehn@@ 123
endere 123
enr@@ 123
fallen 123
gestellt. 123
glio 123
heutzutage 123
ks 123
laut@@ 123
recuper@@ 123
reich@@ 123
stran@@ 123
sullo 123
tag@@ 123
unterneh@@ 123
verbra@@ 123
verl@@ 123
wirtschaft 123
ziel@@ 123
"-@@ 122
B. 122
Charles 122
Konzept 122
Minut@@ 122
Regeln 122
Sam@@ 122
Somm@@ 122
Tagen 122
Unser 122
arbeitete 122
chst@@ 122
clas@@ 122
confl@@ 122
costr@@ 122
d'accor@@ 122
damit, 122
deser@@ 122
digitale 122
dirett@@ 122
direttamente 122
dite 122
entlichen 122
erfun@@ 122
eria 122
filos@@ 122
fonte 122
icamente, 122
install@@ 122
ition 122
krieg@@ 122
minist@@ 122
nennt 122
risor@@ 122
ruh@@ 122
scegliere 122
sembr@@ 122
sitzen 122
sollte, 122
strade 122
tradition@@ 122
umano. 122
vag@@ 122
web@@ 122
werk@@ 122
"Il 121
2, 121
5, 121
Erwachsen@@ 121
Gebiet 121
Hu@@ 121
John@@ 121
Klei@@ 121
Nachricht 121
National 121
Pakist@@ 121
Sonnen@@ 121
Wir@@ 121
anischen 121
anni@@ 121
atell@@ 121
civi@@ 121
computer. 121
controllare 121
dein 121
energet@@ 121
esempio. 121
esen. 121
eter 121
famiglie 121
forz@@ 121
fossi@@ 121
futur@@ 121
getr@@ 121
ier 121
illumin@@ 121
importa 121
imprendit@@ 121
lagen 121
lo, 121
offri@@ 121
potevo 121
proprie 121
ricostru@@ 121
sch. 121
schnei@@ 121
sembrare 121
servizio 121
so: 121
spos@@ 121
tat 121
tim@@ 121
ton 121
trover@@ 121
unico 121
verloren 121
will. 121
35 120
Arbei@@ 120
Bis@@ 120
F: 120
Int@@ 120
R: 120
Spezi@@ 120
andando 120
ationen. 120
ato? 120
att 120
bau 120
bestimmt 120
correre 120
dia 120
dieci 120
dipen@@ 120
ebenso 120
effettivamente 120
einf@@ 120
eister@@ 120
entra 120
esperimento 120
ettere 120
fogli@@ 120
gef@@ 120
gelern@@ 120
ghiacci@@ 120
gia 120
gior@@ 120
giu@@ 120
hundert 120
ihr@@ 120
immer, 120
mir@@ 120
mori@@ 120
oh 120
oh, 120
parliamo 120
poche 120
prese 120
punk@@ 120
ridu@@ 120
s? 120
scat@@ 120
sch, 120
scopo 120
servizi 120
shi@@ 120
stieg 120
troviamo 120
umzu@@ 120
y-@@ 120
0er 119
Amerikaner 119
Charak@@ 119
Facci@@ 119
Grupp@@ 119
Instituti@@ 119
Kreativit@@ 119
Labor@@ 119
Manche 119
Milli@@ 119
Orte 119
Pop@@ 119
Profess@@ 119
Regierungen 119
Uniti. 119
alizzazione 119
atamente, 119
aufreg@@ 119
aumento 119
colore 119
computer, 119
costi 119
darin, 119
denz@@ 119
dirvi 119
echt@@ 119
erinn@@ 119
estin@@ 119
fahren. 119
fertig@@ 119
gebracht 119
genann@@ 119
ges 119
guarda 119
itz 119
momenti 119
nimm@@ 119
omin@@ 119
permesso 119
presi@@ 119
qualcosa. 119
raccogliere 119
reden, 119
reichen 119
rispondere 119
rup@@ 119
sach@@ 119
scambi@@ 119
scriv@@ 119
sogg@@ 119
sollen 119
totalmente 119
velocemente 119
4. 118
Ama@@ 118
Auswirkungen 118
Beding@@ 118
E-Ma@@ 118
Fehler 118
Har@@ 118
Ingenie@@ 118
Internet. 118
New@@ 118
Ol@@ 118
Ori@@ 118
Pos@@ 118
Prei@@ 118
T 118
Woh@@ 118
afen 118
aggr@@ 118
bleiben 118
chiedere 118
classe 118
comprendere 118
confin@@ 118
durchschnitt@@ 118
eigenes 118
einfachen 118
einzigar@@ 118
erweise 118
esegu@@ 118
fabbr@@ 118
forn@@ 118
gente. 118
gesag@@ 118
gestellt, 118
gewach@@ 118
illu@@ 118
interessant 118
nove 118
ock 118
onen, 118
onlin@@ 118
peso 118
pli@@ 118
ramm@@ 118
rapporto 118
recente 118
rund 118
sagten, 118
seguito 118
significato 118
sobald 118
struktur@@ 118
tun@@ 118
volare 118
ziehen, 118
Don@@ 117
Dor@@ 117
Erkennt@@ 117
Fir@@ 117
Firmen 117
Gedi@@ 117
Kun@@ 117
Nehmen 117
Prinzip 117
Produ@@ 117
Recht@@ 117
Stre@@ 117
abl@@ 117
afrikan@@ 117
alog@@ 117
annten 117
auto@@ 117
blu 117
camm@@ 117
cattur@@ 117
ches 117
de? 117
decisioni 117
dige 117
discor@@ 117
dubbi@@ 117
epoca 117
etro. 117
fenomeno 117
fra@@ 117
funktionieren 117
har@@ 117
infra@@ 117
inspiri@@ 117
itte 117
koll@@ 117
l'ar@@ 117
l'unica 117
llen 117
misura 117
molto. 117
ogna 117
ok, 117
pezzi 117
scelte 117
stellt, 117
stupi@@ 117
successo. 117
terapi@@ 117
uff@@ 117
umana. 117
vorstellen 117
vu@@ 117
wichtig. 117
zia 117
Aufmerksamkeit 116
Ebene 116
Evolution 116
Geschwindi@@ 116
Instrum@@ 116
OK, 116
Ot@@ 116
Technologie, 116
Thomas 116
Tutte 116
Weise, 116
adol@@ 116
almente. 116
asta 116
avanz@@ 116
avessi 116
avvi@@ 116
brac@@ 116
credo, 116
danke 116
de: 116
designer 116
elabor@@ 116
form 116
fornire 116
frat@@ 116
gin@@ 116
incontrato 116
indipend@@ 116
lehr@@ 116
mano. 116
piedi@@ 116
portano 116
proveni@@ 116
rappresenta 116
sinist@@ 116
sotto@@ 116
spero 116
spin@@ 116
ultur@@ 116
vuoi 116
wert 116
1.@@ 115
600 115
Ari@@ 115
Darw@@ 115
Erfahrungen 115
Gri@@ 115
Higg@@ 115
Kollegen 115
Konflik@@ 115
L 115
Na@@ 115
Plast@@ 115
Port@@ 115
Seiten 115
Stelle 115
Ther@@ 115
Weg, 115
Zeich@@ 115
akt@@ 115
aperto 115
atore. 115
avia, 115
beeindruck@@ 115
bem@@ 115
besonder@@ 115
bio@@ 115
blau@@ 115
cima 115
cke 115
elem@@ 115
es: 115
ession@@ 115
feld 115
forze 115
gente, 115
grafic@@ 115
intera 115
itt 115
lic@@ 115
lik@@ 115
mangiare 115
nazione 115
occupar@@ 115
ograph@@ 115
predi@@ 115
sah, 115
schei@@ 115
soffer@@ 115
tradi@@ 115
typ@@ 115
verfol@@ 115
., 114
Entwickl@@ 114
Ergebnisse 114
Fotos 114
Infra@@ 114
Million 114
Okay. 114
Quest@@ 114
Sembra 114
Wh@@ 114
X 114
allgem@@ 114
aro 114
ature 114
bello 114
bic@@ 114
contesto 114
costitu@@ 114
credere 114
dimento 114
ebr@@ 114
efer@@ 114
eg 114
eln@@ 114
entwickeln, 114
erreicht 114
fase 114
fig 114
gebi@@ 114
guardiamo 114
hoffe, 114
icato 114
icolo 114
incredibile. 114
iti. 114
krit@@ 114
leggi 114
naturalmente, 114
nego@@ 114
niente. 114
opportun@@ 114
paese, 114
prendiamo 114
punto, 114
rank@@ 114
risparmi@@ 114
saper@@ 114
scim@@ 114
trag 114
treffen 114
umani. 114
zent@@ 114
"L@@ 113
3. 113
;@@ 113
Fernseh@@ 113
Funktion@@ 113
Geweb@@ 113
Go@@ 113
Hoffn@@ 113
IS@@ 113
Kris@@ 113
Menschheit 113
P 113
Perspek@@ 113
Pfl@@ 113
Sei 113
Sohn 113
Syn@@ 113
Wichtig@@ 113
You@@ 113
Zahl@@ 113
agne 113
ahl 113
altung 113
atori. 113
bar, 113
boc@@ 113
dif@@ 113
difficol@@ 113
dinosau@@ 113
discut@@ 113
efficac@@ 113
estr@@ 113
etten 113
farlo, 113
fin 113
fug@@ 113
generale 113
intervento 113
l'altra 113
los. 113
metafor@@ 113
orri@@ 113
pet@@ 113
riusciamo 113
scher 113
sprach 113
stesso. 113
trem@@ 113
unterschei@@ 113
up@@ 113
vend@@ 113
vergleich@@ 113
viso 113
welcher 113
8. 112
Artikel 112
Chicag@@ 112
Dev@@ 112
ED@@ 112
Job 112
Kli@@ 112
Monaten 112
Nummer 112
Sauerst@@ 112
Solar@@ 112
Tats@@ 112
Wikip@@ 112
Wur@@ 112
ado 112
ager 112
aiuta 112
angeb@@ 112
appassion@@ 112
astron@@ 112
atiche 112
attent@@ 112
besondere 112
chil@@ 112
ciasc@@ 112
continua 112
corsi 112
dadurch 112
desiderio 112
dichiar@@ 112
disper@@ 112
document@@ 112
economica 112
egal 112
ela 112
entscheiden@@ 112
esplo@@ 112
genannt 112
gesehen. 112
get 112
heim@@ 112
impedi@@ 112
inistr@@ 112
lebens@@ 112
ling 112
metodo 112
mitten 112
nein, 112
ner, 112
oceano 112
orb@@ 112
quanti@@ 112
ragioni 112
rapidamente 112
ricom@@ 112
schrei@@ 112
schwi@@ 112
sten. 112
svol@@ 112
team 112
terr@@ 112
totale 112
unterschiedliche 112
usi@@ 112
B 111
Den@@ 111
Experiment@@ 111
James 111
Museum 111
Politik 111
Programm 111
TED. 111
Va 111
Wachstum 111
analisi 111
anco@@ 111
appon@@ 111
arry 111
benutzt 111
cittadini 111
creando 111
creature 111
dritte 111
duc@@ 111
ecke 111
elle. 111
esperienze 111
giustizi@@ 111
heutigen 111
livelli 111
lontano 111
ollen 111
pazz@@ 111
pi. 111
pieno 111
rice@@ 111
riten@@ 111
sieht. 111
simili 111
sogen@@ 111
somm@@ 111
speranza 111
treib@@ 111
unden, 111
unger 111
usate 111
volte, 111
ward 111
zo 111
Chanc@@ 110
Diskus@@ 110
Dort 110
Entscheid@@ 110
Epi@@ 110
Komplex@@ 110
Ris@@ 110
Sto 110
TEDx@@ 110
Times 110
Wirklichkeit 110
Wun@@ 110
abile, 110
alt, 110
betei@@ 110
brit@@ 110
compagni@@ 110
comprare 110
corpo. 110
dallo 110
doc@@ 110
equ@@ 110
ettr@@ 110
formen 110
genere. 110
giocare 110
grafico 110
hin, 110
hren 110
iPh@@ 110
interessant@@ 110
itori 110
jahr@@ 110
klu@@ 110
missione 110
mostrano 110
offensichtlich 110
olle 110
ologische 110
opini@@ 110
osen 110
pann@@ 110
particolarmente 110
presi 110
qualcosa, 110
sel 110
sollten, 110
ta, 110
venivano 110
vermei@@ 110
vissuto 110
zun@@ 110
zusammen, 110
"Es 109
1000 109
BG: 109
Brit@@ 109
Chin@@ 109
Formen 109
Fort@@ 109
Jedes 109
Kopf@@ 109
Linie 109
Material 109
Mitgli@@ 109
Monat 109
Noch 109
Pers@@ 109
Por@@ 109
Tatsache, 109
Tutt@@ 109
Wirtschafts@@ 109
Worte 109
ahn 109
akzep@@ 109
atellit@@ 109
ativo. 109
bin. 109
blocc@@ 109
braccio 109
colleghi 109
dings 109
erinnern, 109
fik@@ 109
franc@@ 109
front@@ 109
gefunden, 109
globale. 109
haus@@ 109
internazion@@ 109
kommuni@@ 109
lasse 109
leich@@ 109
mapp@@ 109
mondiale 109
nec@@ 109
onnen 109
organisier@@ 109
pensier@@ 109
poveri 109
principale 109
profit@@ 109
ragazza 109
resi@@ 109
scolast@@ 109
solamente 109
spedi@@ 109
ste. 109
stellten 109
sterben 109
stessi. 109
tecnologia. 109
teren 109
umani, 109
valori 109
vento 109
wiederhol@@ 109
ziehen. 109
Atom@@ 108
Basi@@ 108
Ergeb@@ 108
Haben 108
Herz 108
Journ@@ 108
Lit@@ 108
Ok. 108
Pra@@ 108
Sei@@ 108
Sta 108
Systeme 108
Teilen 108
Umwelt 108
Vari@@ 108
acceler@@ 108
ara 108
arrivato 108
arsi. 108
auti@@ 108
certa 108
cken 108
cogn@@ 108
dinam@@ 108
ef 108
elte 108
ettiamo 108
etzt 108
finde 108
guida 108
imit@@ 108
itat 108
kompl@@ 108
kra@@ 108
matrimon@@ 108
mich. 108
mier@@ 108
opera 108
orit@@ 108
ossigen@@ 108
paziente 108
provoc@@ 108
put@@ 108
rau@@ 108
region@@ 108
schwier@@ 108
scoperta 108
sembrava 108
seri@@ 108
verwenden, 108
"Beh, 107
Afghanist@@ 107
Asi@@ 107
Bost@@ 107
Hot@@ 107
Innovation 107
Kontr@@ 107
Liste 107
Patient@@ 107
S-@@ 107
Sim@@ 107
Software 107
Studien 107
Volevo 107
Vortrag@@ 107
abili. 107
at. 107
attra@@ 107
auton@@ 107
compren@@ 107
costruzione 107
creazione 107
cro@@ 107
elettron@@ 107
emente. 107
enheit 107
enze. 107
farci 107
gab. 107
gesprochen 107
greif@@ 107
halte 107
hig 107
icoli 107
imbar@@ 107
incoraggi@@ 107
inder@@ 107
insegnato 107
issimi 107
l'energia 107
notizia 107
peri@@ 107
piena 107
presto 107
psicolog@@ 107
rap@@ 107
rare 107
simul@@ 107
sostanzi@@ 107
strada. 107
uccis@@ 107
vant@@ 107
verlor@@ 107
zusetz@@ 107
Africa. 106
Bank@@ 106
Bewusstsein 106
Cap@@ 106
Cas@@ 106
Cominci@@ 106
Hirn@@ 106
Jahre, 106
Manchmal 106
Strom@@ 106
Tag, 106
Vedete 106
aner 106
atore, 106
berei@@ 106
bilden 106
chiest@@ 106
circon@@ 106
disturb@@ 106
diventando 106
els 106
embr@@ 106
erreichen, 106
etzt, 106
fai 106
fondamentale 106
forest@@ 106
gefun@@ 106
hab 106
hr 106
insegnante 106
l'es@@ 106
maggior@@ 106
membri 106
messi 106
ossen 106
paese. 106
parlarvi 106
propor@@ 106
prossi@@ 106
prove 106
razion@@ 106
reden. 106
rick@@ 106
riconosci@@ 106
spazi 106
specific@@ 106
ta. 106
talmente 106
terra, 106
tier@@ 106
tieren 106
tion, 106
tue 106
utz 106
vendo 106
Afghanistan 105
Dru@@ 105
Experiment 105
Hunder@@ 105
Personen 105
Qual 105
Robert 105
Sand@@ 105
Spezies 105
Tri@@ 105
UN@@ 105
Version 105
Will@@ 105
alberi 105
alli 105
ator 105
bewegen. 105
buone 105
case 105
cittad@@ 105
cogli@@ 105
consumat@@ 105
contin@@ 105
cos'@@ 105
depres@@ 105
durchge@@ 105
ement 105
ensei@@ 105
erfolgreich 105
funziona. 105
icht. 105
importanza 105
ines@@ 105
intit@@ 105
ist? 105
klar@@ 105
nation@@ 105
nennen. 105
nerv@@ 105
notare 105
ossi@@ 105
percent@@ 105
piacci@@ 105
ppen 105
rechts 105
schlimm@@ 105
teilen. 105
trad@@ 105
versuche 105
verwendet 105
vollen 105
wiss@@ 105
wusste, 105
zeigte 105
5.000 104
Berei@@ 104
Beziehungen 104
Bildschir@@ 104
Bis 104
C. 104
Dan 104
Frau, 104
Gewi@@ 104
Interesse 104
Intern@@ 104
Ma, 104
Ozean 104
Pub@@ 104
Tier 104
Zwei 104
andeln 104
battagli@@ 104
batteri 104
caff@@ 104
chilom@@ 104
conoscere 104
dasselbe 104
difficile. 104
droh@@ 104
dun@@ 104
enzu@@ 104
esperimenti 104
etwor@@ 104
evitare 104
funzione 104
gens 104
idea, 104
insieme, 104
keiner 104
lim@@ 104
molt@@ 104
occ@@ 104
ovunque 104
portata 104
preven@@ 104
realt@@ 104
rechte 104
ringrazi@@ 104
scegli@@ 104
sech@@ 104
sei, 104
stig 104
unglaubliche 104
utilizzare 104
Bakterien 103
CO2 103
Diag@@ 103
Entwicklungsl@@ 103
Got@@ 103
Hall@@ 103
Kampf 103
Schei@@ 103
Sen@@ 103
ador@@ 103
apit@@ 103
ato: 103
ber, 103
bewegt 103
bleibt 103
brech@@ 103
certamente 103
collettiv@@ 103
dam 103
dovevo 103
einfach, 103
endete 103
entwickelt, 103
etta. 103
ford 103
ganzes 103
giudi@@ 103
greich@@ 103
herunter@@ 103
ierung 103
influenza 103
istitu@@ 103
jemandem 103
jene 103
ka 103
kel 103
lat@@ 103
mac@@ 103
mazione 103
molecol@@ 103
ne. 103
nota 103
obietti@@ 103
ose. 103
phi@@ 103
produce 103
proi@@ 103
sarei 103
singola 103
sinn@@ 103
spir@@ 103
stand, 103
struktur 103
studente 103
successiv@@ 103
terra. 103
trans@@ 103
unden@@ 103
unterschied@@ 103
urb@@ 103
usi 103
verhinder@@ 103
weiteres 103
"Come 102
&@@ 102
3D@@ 102
Ach@@ 102
Dur@@ 102
Durch 102
Fant@@ 102
Genau@@ 102
Internet, 102
Mic@@ 102
Must@@ 102
Nahrungs@@ 102
Sc@@ 102
Typ 102
Untersuch@@ 102
Wahl 102
Wasser, 102
amerikanische 102
asso 102
atto. 102
azien@@ 102
befinden 102
bewirk@@ 102
chines@@ 102
compassione 102
conferenza 102
confront@@ 102
cure 102
darvi 102
dimensione 102
diversi. 102
ei, 102
element@@ 102
enormi 102
ettare 102
ferm@@ 102
freu@@ 102
giornalist@@ 102
giun@@ 102
ich: 102
intendo 102
issime 102
laure@@ 102
lernen. 102
manifest@@ 102
modernen 102
niedri@@ 102
ordine 102
organizzazioni 102
prodot@@ 102
rallent@@ 102
riusciti 102
schreib@@ 102
tec@@ 102
ug@@ 102
vegli@@ 102
verde 102
versuchte 102
weib@@ 102
5% 101
50.000 101
Anderson: 101
Fehl@@ 101
Land, 101
Lo@@ 101
Mehr@@ 101
Musik@@ 101
Organisation 101
Ressourcen 101
Result@@ 101
T: 101
Verhaltens@@ 101
Werk@@ 101
Wesen 101
Zeitpunkt 101
ah, 101
ahr@@ 101
ala 101
alisierung 101
ancor@@ 101
anon@@ 101
anst@@ 101
beantwort@@ 101
begr@@ 101
cad@@ 101
decidere 101
differenze 101
diminu@@ 101
ecchio 101
ei. 101
elles 101
eure 101
frei 101
freund@@ 101
funzionare 101
gamb@@ 101
gestire 101
ghiaccio 101
glam@@ 101
guardano 101
illustr@@ 101
indoss@@ 101
ingen, 101
klein 101
l' 101
l'hanno 101
nach. 101
nar@@ 101
occa@@ 101
pack@@ 101
partit@@ 101
piacerebbe 101
presenti 101
puli@@ 101
q@@ 101
questo? 101
reazione 101
riescono 101
secolo, 101
seguire 101
stec@@ 101
tief 101
tub@@ 101
unque. 101
weil@@ 101
zeug@@ 101
zzare 101
Africa, 100
Aus 100
Invece 100
Kab@@ 100
Meeres@@ 100
Mein@@ 100
Name 100
OK. 100
Rah@@ 100
Steve 100
Strateg@@ 100
USA, 100
acquist@@ 100
adesso, 100
alismus 100
avi 100
bares 100
beh, 100
bol@@ 100
capaci 100
capo 100
codice 100
consumo 100
da: 100
denkt, 100
erinnern 100
erlaubt 100
ette, 100
etw@@ 100
farsi 100
forman@@ 100
ita, 100
klassi@@ 100
l'ultima 100
la. 100
meglio. 100
mento, 100
miss@@ 100
navi@@ 100
neuroni 100
opti@@ 100
oriamo 100
parti@@ 100
politischen 100
previ@@ 100
ramm 100
realizzato 100
ricerche 100
rief 100
righ@@ 100
rono 100
schauen, 100
signor@@ 100
simil@@ 100
soli 100
solu@@ 100
sopravviv@@ 100
sowie 100
squadra 100
standard 100
stron@@ 100
sum@@ 100
svegli@@ 100
tast@@ 100
ura, 100
vacc@@ 100
wirklich, 100
wohin 100
Arm 99
Arm@@ 99
Autor@@ 99
Aveva 99
Certo, 99
Depres@@ 99
Eing@@ 99
Farbe 99
Fest@@ 99
Gott@@ 99
Interak@@ 99
Kamera 99
Kri@@ 99
L'ho 99
Les@@ 99
Leut@@ 99
Moment, 99
Morgen 99
Nachrichten 99
Spitze 99
TED, 99
Vertr@@ 99
Warum? 99
Weltr@@ 99
allora, 99
an: 99
andosi 99
archi@@ 99
architettura 99
argomento 99
arlo, 99
arrivano 99
biot@@ 99
dlichen 99
genommen, 99
gliche 99
ingegn@@ 99
insegnare 99
kaufen 99
lag 99
megli@@ 99
nazioni 99
nehme 99
nis. 99
onde 99
ord 99
pret@@ 99
quattr@@ 99
rav@@ 99
ricch@@ 99
riesigen 99
rimane 99
rivolu@@ 99
schon, 99
selbst. 99
sichtlich 99
soli@@ 99
spielt 99
sup@@ 99
tecnologi@@ 99
tigli@@ 99
ton, 99
tro@@ 99
umul@@ 99
ung: 99
vertrau@@ 99
vileg@@ 99
villaggio 99
vorstell@@ 99
vulner@@ 99
wahrschein@@ 99
weit@@ 99
werden@@ 99
10, 98
14@@ 98
2-@@ 98
Arab@@ 98
Behandlung 98
Big 98
Brow@@ 98
Buch@@ 98
Dav@@ 98
Druck@@ 98
Familien 98
Familien@@ 98
Fenst@@ 98
Frank@@ 98
Gegent@@ 98
Hoffnung 98
Iran@@ 98
Jungen 98
Kaliforni@@ 98
Keine 98
Lini@@ 98
Nob@@ 98
Produkte 98
Theori@@ 98
Vielfal@@ 98
alcuna 98
artifici@@ 98
aussehen 98
avremo 98
avven@@ 98
bisher 98
comput@@ 98
corpo, 98
dien@@ 98
difficili 98
donne, 98
etro, 98
fab@@ 98
fest, 98
gegangen 98
gering@@ 98
geschrieben 98
grande. 98
heraus 98
ispi@@ 98
l'intero 98
links 98
lungen 98
onie 98
ostac@@ 98
pi, 98
piante 98
ppure, 98
principali 98
profond@@ 98
quante 98
que, 98
ras@@ 98
riguar@@ 98
stimmt 98
stoffe 98
suoni 98
taus@@ 98
traf 98
trasformare 98
volevano 98
wahr? 98
wichtigsten 98
wollte. 98
0-@@ 97
Ed@@ 97
Entscheidung 97
Entwicklungs@@ 97
Facebo@@ 97
Gene 97
Haw@@ 97
Hum@@ 97
Jan@@ 97
Mathematik 97
Medizin 97
Opfer 97
Os@@ 97
Person, 97
Reak@@ 97
Real@@ 97
Sache. 97
Sel@@ 97
Suche 97
Temper@@ 97
Unit@@ 97
Vediamo 97
Wissenschaf@@ 97
alter@@ 97
altet 97
atemi 97
brauchen, 97
croll@@ 97
date 97
diversa 97
ebenfalls 97
entwer@@ 97
enze, 97
fe@@ 97
fiche 97
geboren 97
geni@@ 97
jetzt, 97
male. 97
mir: 97
nahe 97
nascon@@ 97
noch@@ 97
nuovo. 97
ologischen 97
ons 97
organismi 97
oscur@@ 97
parlano 97
risposte 97
ritt 97
riuscit@@ 97
rov@@ 97
sik@@ 97
spre@@ 97
t;@@ 97
tel 97
teles@@ 97
ust 97
ver 97
volo 97
w, 97
wieso 97
00.000 96
195@@ 96
3,@@ 96
Cir@@ 96
Demok@@ 96
Der@@ 96
Eis 96
Emo@@ 96
Finanz@@ 96
Inizi@@ 96
Insek@@ 96
Iran 96
It@@ 96
Las@@ 96
P: 96
Prinzi@@ 96
Privat@@ 96
Sho@@ 96
Sil@@ 96
Spa@@ 96
Stadt@@ 96
Stev@@ 96
TV@@ 96
Tem@@ 96
US@@ 96
Vedete, 96
Vogli@@ 96
W: 96
analy@@ 96
arbeite 96
arrivati 96
ascoltare 96
avanti. 96
bemerkenswer@@ 96
betrachten 96
coli 96
ds 96
edific@@ 96
ektion 96
endet 96
ernst@@ 96
esprim@@ 96
et: 96
fa@@ 96
foresta 96
fratt@@ 96
futuro, 96
hist@@ 96
iges 96
intelligente 96
lavora 96
manc@@ 96
mercati 96
morti 96
negozi@@ 96
olli@@ 96
ollywoo@@ 96
ow 96
porter@@ 96
potrei 96
pubblico. 96
resti 96
reti 96
riconoscere 96
rimanere 96
ristor@@ 96
sappi@@ 96
secolo. 96
sene 96
sentono 96
servono 96
squal@@ 96
sta@@ 96
steu@@ 96
umano, 96
vedono 96
verd@@ 96
zel@@ 96
"Warum 95
Antworten 95
Ball@@ 95
Baum@@ 95
C, 95
Dank 95
Ehr@@ 95
Golf@@ 95
India, 95
Konferenz 95
Leidenschaft 95
Neuro@@ 95
Obam@@ 95
Pap@@ 95
Philos@@ 95
Post@@ 95
Student@@ 95
Vergleich 95
Viel@@ 95
Vog@@ 95
World 95
aden, 95
aktiv 95
alc@@ 95
altra. 95
anco 95
andav@@ 95
articolo 95
begrenz@@ 95
bi 95
cia, 95
circost@@ 95
compito 95
copr@@ 95
dabei, 95
dando 95
denkt 95
differenti 95
dipend@@ 95
enz. 95
esi. 95
esperiment@@ 95
esplorare 95
etica 95
genommen. 95
hilft 95
hohen 95
implic@@ 95
interessiert 95
interno 95
ite, 95
konnten, 95
l'im@@ 95
licht@@ 95
maggiori 95
mai@@ 95
mantenere 95
mathemat@@ 95
nenne 95
neuer 95
orno 95
ox@@ 95
permett@@ 95
pezz@@ 95
rebbero 95
regione 95
regist@@ 95
ripar@@ 95
riun@@ 95
tausend 95
tion. 95
vedete, 95
viviamo 95
weise, 95
weiterhin 95
welchen 95
"F@@ 94
'9@@ 94
-T@@ 94
250 94
Alex@@ 94
Alzhei@@ 94
Auge 94
Deut@@ 94
Dimen@@ 94
Drei@@ 94
Flei@@ 94
Folgen@@ 94
Geschicht@@ 94
Gesetz 94
Giust@@ 94
Kap@@ 94
Ke@@ 94
M 94
Methode 94
Molte 94
N 94
Nacht@@ 94
Nerv@@ 94
Ost@@ 94
Sha@@ 94
Sozial@@ 94
Ste@@ 94
Stim@@ 94
Unterschiede 94
York, 94
artista 94
aur@@ 94
ausgest@@ 94
benutzen, 94
biologi@@ 94
butt@@ 94
creano 94
disp@@ 94
ektr@@ 94
ender@@ 94
ento. 94
erleb@@ 94
ets 94
fuori. 94
gab, 94
ger. 94
gigant@@ 94
gt. 94
icl@@ 94
identi@@ 94
inferi@@ 94
ion 94
iste 94
jek@@ 94
kannst 94
laboratori@@ 94
linee 94
mancanza 94
medicina 94
mehr, 94
memoria 94
mir. 94
oria, 94
otta 94
pagare 94
passa 94
perdere 94
projek@@ 94
respir@@ 94
ricordare 94
rid@@ 94
riuscire 94
schafft 94
selbst, 94
somit 94
staat@@ 94
trotz 94
veloce 94
verschi@@ 94
videogi@@ 94
.. 93
AR@@ 93
Amerikan@@ 93
Deb@@ 93
Form@@ 93
Krankenhaus 93
MIT 93
Mex@@ 93
Nahrung 93
Objekt 93
Og@@ 93
Politik@@ 93
Region 93
Schwierig@@ 93
Stan@@ 93
Stunde 93
abei 93
addiritt@@ 93
agon@@ 93
alismo 93
arme 93
auto-@@ 93
behaupt@@ 93
bili@@ 93
blic@@ 93
certi 93
conseguenze 93
cool@@ 93
cop@@ 93
dentr@@ 93
dibatt@@ 93
diceva 93
dire: 93
disastr@@ 93
falsche 93
felici 93
fotogra@@ 93
fram@@ 93
frase 93
fung@@ 93
funzioni 93
gespro@@ 93
handelt 93
iera 93
integr@@ 93
interessante, 93
intro@@ 93
kal@@ 93
leader@@ 93
lotta 93
miglior 93
moment@@ 93
muc@@ 93
nutzen. 93
nuvol@@ 93
o' 93
occu@@ 93
pien 93
ragazze 93
resi 93
rifu@@ 93
riscald@@ 93
sa, 93
sage, 93
scuola, 93
scuola. 93
sive 93
solare 93
sozus@@ 93
stil@@ 93
sweise 93
tracci@@ 93
tragen. 93
trib@@ 93
un'immagine 93
uova 93
varie 93
was, 93
wissen. 93
Altr@@ 92
Ancor@@ 92
Cha@@ 92
Dinosau@@ 92
Dorf 92
Fig@@ 92
Kaff@@ 92
Ker@@ 92
Kontin@@ 92
Landes 92
Lap@@ 92
Metap@@ 92
Netzwerk 92
Rock@@ 92
Washington 92
Zuerst 92
angolo 92
animali, 92
aten. 92
auch. 92
aun@@ 92
cano 92
caratteristiche 92
chest@@ 92
destens 92
disposi@@ 92
dreh@@ 92
edifici 92
eine, 92
ellen@@ 92
erstes 92
esim@@ 92
faremo 92
fiducia 92
finalmente 92
fo@@ 92
gehol@@ 92
giard@@ 92
gro@@ 92
hinein@@ 92
ht@@ 92
impl@@ 92
inglese 92
l'Africa 92
l'immagine 92
mamm@@ 92
miliardo 92
noi@@ 92
nuot@@ 92
ool 92
oot 92
poch@@ 92
rub@@ 92
ruot@@ 92
s" 92
schluss 92
sein? 92
sesso 92
telec@@ 92
til@@ 92
treten 92
tuoi 92
um: 92
web 92
weder 92
wissenschaftlichen 92
z.B. 92
99@@ 91
Amerik@@ 91
Arbeit, 91
Blick@@ 91
C: 91
Detail@@ 91
Dio, 91
Eigenschaften 91
Flug@@ 91
Infatti, 91
Jahr. 91
Kern@@ 91
Kilometer 91
Kir@@ 91
Kontex@@ 91
Mars 91
Mobil@@ 91
NASA 91
Papier 91
Quelle 91
S, 91
Schlaf@@ 91
Sex 91
Sex@@ 91
Sur@@ 91
Symb@@ 91
T, 91
ardo 91
assembl@@ 91
avessero 91
begann, 91
beschleun@@ 91
bra 91
bung 91
chiaro 91
coi 91
comunicazione 91
conosciamo 91
corrispon@@ 91
corru@@ 91
costruir@@ 91
do? 91
edono 91
egno 91
einhalb 91
entliche 91
erei 91
erhalten. 91
fantastico 91
fasst 91
fatte 91
fera 91
gekommen 91
geni 91
han 91
hl 91
kel@@ 91
liqui@@ 91
medici 91
moglie 91
monit@@ 91
nach, 91
ooper@@ 91
pagina 91
pesci 91
politische 91
probabile 91
pur 91
riamo 91
seduti 91
sexu@@ 91
som@@ 91
sono, 91
steckt 91
steht. 91
studiato 91
tizio 91
toren 91
vantaggio 91
wichtigen 91
wird@@ 91
"? 90
"The 90
Arbeit. 90
Dollar. 90
Frage: 90
G 90
Ged@@ 90
Geld@@ 90
Geschi@@ 90
Intervi@@ 90
Ja. 90
Lernen 90
Markt@@ 90
Meer 90
Molto 90
Punkte 90
Tom 90
Twitter 90
Verantwortung 90
Willi@@ 90
agen, 90
arci. 90
arsi, 90
asci@@ 90
atem@@ 90
atevi 90
beob@@ 90
blog@@ 90
bom@@ 90
brechen 90
bud@@ 90
caratter@@ 90
circu@@ 90
compi@@ 90
comprensione 90
dachten 90
data 90
dipende 90
diverse. 90
egen@@ 90
eidig@@ 90
eli@@ 90
energie 90
favore 90
fertig 90
fossi 90
gewiss@@ 90
giorni, 90
giusta 90
grandi@@ 90
ickl@@ 90
ipot@@ 90
kosten@@ 90
l'uomo 90
losen 90
mifer@@ 90
offensicht@@ 90
politiche 90
problemi. 90
prospettiva 90
rasch@@ 90
regel@@ 90
repar@@ 90
respi@@ 90
schmer@@ 90
schreiben, 90
schu@@ 90
segnali 90
sguardo 90
sific@@ 90
sollev@@ 90
sonn@@ 90
spirit@@ 90
unterschiedlichen 90
verein@@ 90
vermutlich 90
zep@@ 90
zeug 90
zug 90
..@@ 89
19 89
Australi@@ 89
Bild, 89
Brasili@@ 89
Fach@@ 89
Fun@@ 89
Himmel 89
Keny@@ 89
Leuten, 89
Mio 89
Mitge@@ 89
Ness@@ 89
Nov@@ 89
Peter 89
Pflanz@@ 89
Pflanzen 89
Potrebbe 89
Reaktion 89
Schwei@@ 89
Treib@@ 89
Zivilis@@ 89
abol@@ 89
alizzare 89
all. 89
allontan@@ 89
anch@@ 89
arten 89
bellezza 89
bend 89
betriff@@ 89
blin@@ 89
campi 89
capace 89
caratterist@@ 89
cau@@ 89
combattere 89
dipl@@ 89
dollari, 89
enden. 89
esen, 89
evoli 89
fatti, 89
finire 89
gearbeitet 89
gehe 89
geschieht 89
globale, 89
grosso 89
guardar@@ 89
hem@@ 89
isi 89
kennen. 89
letztes 89
lichkeit, 89
lui. 89
lungh@@ 89
mals 89
mand@@ 89
niem@@ 89
oli. 89
or, 89
para@@ 89
pelle 89
positivo 89
produttiv@@ 89
proteggere 89
raus@@ 89
reale. 89
rigi@@ 89
schreiben. 89
semplice, 89
sfide 89
stem 89
taten 89
tolle 89
treffen. 89
un'occhiata 89
unbeding@@ 89
ung? 89
wenden 89
wus@@ 89
zzo 89
%@@ 88
0 88
Char@@ 88
Chir@@ 88
Defin@@ 88
Due 88
Ecco, 88
Fabri@@ 88
Facebook 88
Fein@@ 88
Gegensatz 88
Grad 88
Hack@@ 88
India. 88
Konzep@@ 88
Lasciate 88
Lav@@ 88
Maschinen 88
Mel@@ 88
Mittel 88
Nachricht@@ 88
Netz 88
Protot@@ 88
Prov@@ 88
Schlag@@ 88
Sinne 88
Tradi@@ 88
USA. 88
Verletz@@ 88
Wunder@@ 88
adesso. 88
adott@@ 88
angeh@@ 88
brauchen. 88
carriera 88
cellula 88
conflit@@ 88
dafrik@@ 88
derzeit 88
difficil@@ 88
diritto 88
dlich 88
egen, 88
elten 88
ento, 88
entusias@@ 88
erseit@@ 88
es? 88
esempi@@ 88
eting 88
fangen. 88
filtr@@ 88
funzionano 88
gebrau@@ 88
hand 88
herauszu@@ 88
iere 88
ing-@@ 88
inist@@ 88
intelligenza 88
interessi@@ 88
istituzioni 88
kut@@ 88
pace 88
parlo 88
riuscito 88
rivol@@ 88
schel@@ 88
si: 88
sostanza 88
spec@@ 88
spiritu@@ 88
start@@ 88
suchen, 88
traspar@@ 88
ua 88
vorbei@@ 88
weg. 88
weiter, 88
zy@@ 88
cere 87
engl@@ 87
esserci 87
evoluti@@ 87
fantastico. 87
fec@@ 87
genutzt 87
geteil@@ 87
grande, 87
gur@@ 87
hilfe 87
ihnen, 87
inspi@@ 87
isst 87
jetz@@ 87
kat@@ 87
klin@@ 87
lasciate 87
list@@ 87
mechan@@ 87
milli@@ 87
mt 87
n? 87
nachdenken, 87
naturalmente 87
porre 87
questo: 87
rendono 87
scatola 87
siti 87
social 87
specialmente 87
stad@@ 87
togli@@ 87
train@@ 87
ufficio 87
veni@@ 87
via, 87
vista, 87
vuot@@ 87
wenigen 87
wissenschaftliche 87
yn 87
yr@@ 87
Ihr@@ 86
Mathemati@@ 86
Netz@@ 86
Umgeb@@ 86
chtig@@ 86
ehl@@ 86
gorit@@ 86
membr@@ 86
organis@@ 86
pporto 86
strut@@ 86
Alcun@@ 85
ativit@@ 85
gesam@@ 85
ritto 85
stessi@@ 85
vermut@@ 85
zehn@@ 85
Bakteri@@ 84
Kamp@@ 84
ediamo 84
influ@@ 84
proteg@@ 84
ule 84
Bedeut@@ 83
Kil@@ 83
Revoluti@@ 83
The 83
Wachst@@ 83
ay. 83
beding@@ 83
igi@@ 83
itze 83
oltr@@ 83
piamo 83
signi@@ 83
spett@@ 83
Hir@@ 82
Nam@@ 82
Perch@@ 82
bam@@ 82
durre 82
Fac@@ 81
Molek@@ 81
coraggi@@ 81
eite 81
genie@@ 81
gestell@@ 81
igli@@ 81
meto@@ 81
raccogli@@ 81
ring@@ 81
Austr@@ 80
Behand@@ 80
architett@@ 80
democrazi@@ 80
echan@@ 80
rapid@@ 80
viss@@ 80
Instit@@ 79
echni@@ 79
manten@@ 79
mill@@ 79
ohl@@ 79
tizi@@ 79
welt 79
welt@@ 79
Guard@@ 78
Num@@ 78
affr@@ 78
democ@@ 78
nem@@ 78
mogli@@ 77
verschieden@@ 77
Dan@@ 76
Erfol@@ 76
R 76
faszin@@ 76
fenom@@ 76
fess@@ 76
gib@@ 76
gie 76
infer@@ 76
isier@@ 76
selb@@ 76
Schwi@@ 75
egli 75
jed@@ 75
laub@@ 75
Eigenschaf@@ 74
begann@@ 74
cina 74
pena 74
poste 74
prec@@ 74
schnitt@@ 74
volt@@ 74
vul@@ 74
ysi@@ 74
Meer@@ 73
bert 73
scol@@ 73
scuol@@ 73
Bewusst@@ 72
Twit@@ 72
abbast@@ 72
funktion@@ 72
livell@@ 72
probabil@@ 72
wit@@ 72
Oberfl@@ 71
capac@@ 71
epo@@ 71
miliar@@ 71
ure, 71
Wirtschaft@@ 70
enswer@@ 70
modi@@ 70
nur@@ 70
orta 70
poss@@ 70
sex@@ 70
uk@@ 70
usci@@ 70
Polit@@ 69
Wirt@@ 69
espl@@ 69
les 69
tram@@ 69
U 68
Washing@@ 68
ander 68
eich 68
fidu@@ 68
ppor@@ 68
Konf@@ 67
agnet@@ 67
echsel@@ 67
occi@@ 67
ula 67
wirt@@ 67
Antwor@@ 66
OK@@ 66
liamo 66
sili@@ 66
ada@@ 65
berfl@@ 65
catt@@ 65
kos@@ 65
line 65
nied@@ 65
nut@@ 65
riman@@ 65
spek@@ 65
svilu@@ 65
Davi@@ 64
K 64
Pau@@ 64
Phil@@ 64
Tut@@ 64
Verantwort@@ 64
ricon@@ 64
Experim@@ 63
Ty@@ 63
bei, 63
ki@@ 63
squad@@ 63
$@@ 62
Bev@@ 62
econ@@ 62
invol@@ 62
inzi@@ 62
kontr@@ 62
prospettiv@@ 62
Nahr@@ 61
angu@@ 61
ann, 61
assol@@ 61
centin@@ 61
gangen@@ 61
guardo 61
labor@@ 61
rispar@@ 61
Is@@ 60
Pati@@ 60
abor@@ 60
amerikan@@ 60
bilmente 60
blei@@ 60
sieh@@ 60
soprat@@ 60
vil@@ 60
wachsen@@ 60
ware 60
Dies@@ 59
Sozi@@ 59
bli@@ 59
dell 59
enschaf@@ 59
inn 59
maggi@@ 59
oder@@ 59
setti@@ 59
tuto 59
Bezieh@@ 58
Himm@@ 58
Jam@@ 58
Muse@@ 58
entusi@@ 58
it, 58
obiettiv@@ 58
pend@@ 58
windi@@ 58
zahl 58
diss@@ 57
ganz@@ 57
razi@@ 57
rur@@ 57
Evoluti@@ 56
Lan@@ 56
Lasci@@ 56
Mol@@ 56
Rel@@ 56
aia 56
ezi@@ 56
fem@@ 56
r, 56
usin@@ 56
Aufmerksam@@ 55
Nachri@@ 55
cle@@ 55
diffici@@ 55
ding@@ 55
edi 55
sinistr@@ 55
voluti@@ 55
woo@@ 55
Afr@@ 54
esto 54
sess@@ 54
ulla 54
ehmen 53
freg@@ 53
un, 53
Leiden@@ 52
Zus@@ 52
citt@@ 52
contri@@ 52
dest 52
esem@@ 52
vat@@ 52
chmal 51
eute 51
Hil@@ 50
NA@@ 50
Ov@@ 50
agin@@ 50
assolut@@ 50
einzel@@ 50
esatt@@ 50
opo 50
propr@@ 50
riera 50
schir@@ 50
sino 50
Worl@@ 49
ostante 49
Geor@@ 48
Ogn@@ 48
Techn@@ 48
Vergangen@@ 48
commer@@ 48
$ 47
Ken@@ 47
Konfer@@ 47
gger@@ 47
selbe 47
struk@@ 47
Ved@@ 46
aube 46
emat@@ 46
genutz@@ 46
gig@@ 46
pt 46
son: 46
svi@@ 46
zeitig 46
Auswirk@@ 45
Grazi@@ 45
H 45
Ment@@ 45
NAS@@ 45
Pun@@ 45
_@@ 45
ambi 45
bbi@@ 45
eim@@ 45
ondere 45
Sich@@ 44
approc@@ 44
etz 44
forni@@ 44
parteci@@ 44
behau@@ 43
fang 43
fluss 43
fut@@ 43
nich@@ 43
sofor@@ 43
Ini@@ 42
faci@@ 42
prob@@ 42
Artik@@ 41
Krankenh@@ 41
blem 41
eicht 41
gover@@ 41
konzent@@ 41
l'un@@ 41
zdem 41
Immagin@@ 40
Wach@@ 40
afri@@ 40
agric@@ 40
icio 40
icur@@ 40
Archit@@ 39
Dim@@ 39
F 39
brava 39
itik 39
q 39
trot@@ 39
wort 39
zutage 39
@@@ 38
Af@@ 38
Selb@@ 38
alcun@@ 38
jeman@@ 38
ontan@@ 38
riscal@@ 38
such@@ 38
ten: 38
Lab@@ 37
W 37
biamo 37
combat@@ 37
compag@@ 37
omia 37
rico@@ 37
Bak@@ 36
Kilomet@@ 36
chit@@ 36
dimen@@ 36
ghi@@ 36
nostr@@ 36
scu@@ 36
Fra@@ 35
Gru@@ 35
Ressourc@@ 35
TE@@ 35
consap@@ 35
effettiv@@ 35
icht 35
mad@@ 35
rieb 35
ritti 35
azzi@@ 34
chtig 34
sfr@@ 34
under@@ 34
ppo 33
provvis@@ 33
spiel 33
ultur 33
Entw@@ 32
Kommun@@ 32
lea@@ 32
opport@@ 32
plizier@@ 32
rus 32
unser@@ 32
uter 32
versit@@ 32
= 31
AI@@ 31
diritt@@ 31
dustri@@ 31
istr@@ 31
mom@@ 31
ook 31
Comp@@ 30
Hoff@@ 30
Unterschi@@ 30
Zivil@@ 30
um? 30
ziem@@ 30
ghan@@ 29
hinder@@ 29
produt@@ 29
/ 28
Alz@@ 28
Feh@@ 28
Ressour@@ 28
genomm@@ 28
rimon@@ 28
HI@@ 27
Verhalt@@ 27
abri@@ 27
armente 27
vell@@ 27
+ 26
E-@@ 26
Y 26
amiamo 26
konn@@ 26
ache, 25
cro 25
erig 25
ikan@@ 25
insiem@@ 25
osau@@ 25
Pak@@ 24
Q 24
atorio 24
ejen@@ 24
ellig@@ 24
enn 24
erig@@ 24
) 23
ingeg@@ 23
j 23
leun@@ 23
num@@ 23
ourn@@ 23
[ 22
abband@@ 22
egli@@ 22
fric@@ 22
siasi 22
verwen@@ 22
zin 22
#@@ 21
Dah@@ 21
dru@@ 21
guada@@ 21
kennt@@ 21
osto 21
selt@@ 21
zeh@@ 21
+@@ 20
Inv@@ 20
J 20
Vereinig@@ 20
Z 20
beein@@ 20
cris@@ 20
mas 20
ungef@@ 20
vello 20
Entschei@@ 19
Terr@@ 19
ider@@ 19
stem@@ 19
aliforni@@ 18
gemach@@ 18
hemat@@ 18
kei@@ 18
mec@@ 18
passion@@ 18
ratie 18
un'occhi@@ 18
Heraus@@ 17
ohn 17
oter 17
pfer 17
dimin@@ 16
unqu@@ 16
Disk@@ 15
Kompl@@ 15
cun@@ 15
ezzo 15
rem 15
.B. 14
Stra@@ 14
Wiki@@ 14
afor@@ 14
distri@@ 14
ensatz 14
petr@@ 14
umindest 14
vostr@@ 14
icil@@ 13
piu@@ 13
respon@@ 13
sych@@ 13
uttosto 13
*@@ 12
buchst@@ 12
ece 12
mut 12
sagt@@ 12
(@@ 11
Afghan@@ 11
Tho@@ 11
Was@@ 11
erfolg@@ 11
hemati@@ 11
poten@@ 11
urop@@ 11
Micha@@ 10
accel@@ 10
ermin@@ 10
haupt@@ 10
merksam@@ 10
rall@@ 10
Din@@ 9
alcuno 9
ernen 9
essour@@ 9
impren@@ 9
suff@@ 9
artific@@ 8
assem@@ 8
avent@@ 8
ddis@@ 8
meh@@ 8
Ener@@ 7
Mens@@ 7
_ 7
ascin@@ 7
avigli@@ 7
britanni@@ 7
interes@@ 7
=@@ 6
Allor@@ 6
Masch@@ 6
^ 6
glei@@ 6
simi@@ 6
solut 6
hrend 5
terneh@@ 5
amili@@ 4
indi 4
indi, 4
itiche 4
prosp@@ 4
ywoo@@ 4
* 3
@ 3
Arb@@ 3
`@@ 3
blem@@ 3
entwick@@ 3
flanz@@ 3
@@ 2
` 2
azi 2
pt: 2
vidu@@ 2
Faceb@@ 1
Uns@@ 1
^@@ 1
amit 1
elleicht 1
otidi@@ 1
