<unk>
<pad>
<s>
</s>
di
in
che
e
die
und
a
der
la
un
il
zu
das
es
per
ist
i
wir
ich
una
non
ein
Sie
le
sie
den
von
.
eine
dass
e,
,
o
Und
en,
e.
si
er
en
E
nicht
mit
sono
da
en.
t
er@@
del
are
auf
wie
"@@
o,
Ich
o.
con
come
sich
s@@
a.
a,
--
l'@@
ver@@
della
ato
um
an
man
t,
ci
S@@
questo
so
s
als
-@@
se
in@@
al
Das
en@@
te
ma
t.
t@@
an@@
Es
dem
ha
diese
im
sind
was
einen
ten
Wir
st@@
l@@
ung
ri@@
nel
k@@
B@@
wenn
f@@
d@@
di@@
M@@
haben
lo
r@@
T@@
:
?
o@@
war
des
ar@@
b@@
g@@
ano
uns
mi
e@@
n@@
dei
m@@
un@@
D@@
oder
gli
R@@
p@@
delle
Ma
H@@
einer
i@@
einem
L@@
aber
h@@
or@@
cosa
molto
ho
on@@
Die
auch
al@@
K@@
questa
aus
Aber
-
cui
era
ate
alla
essere
ale
alle
u@@
ent@@
abbiamo
ein@@
N@@
c@@
nur
at@@
A@@
am@@
C@@
et@@
F@@
sch@@
E@@
w@@
ist,
es@@
sehr
In
z@@
el@@
loro
be@@
anche
P@@
quando
Non
i,
a@@
aus@@
ab@@
hanno
dell'@@
W@@
ati
ad
Ver@@
it@@
ata
La
dann
mich
solo
fare
re@@
G@@
su
persone
noch
ge@@
i.
also
hat
si@@
ne
v@@
quello
hier
Menschen
werden
ando
azione
vi
Il
dieser
Sch@@
ai
gibt
ch@@
de
nach
Wenn
ag@@
etwas
li@@
tutti
ol@@
bei
modo
ed
St@@
An@@
um@@
pi@@
kann
auf@@
io
and
nella
y@@
ere
tutto
av@@
ur@@
uno
wird
con@@
mehr
tr@@
J@@
anni
sia
y
ore
."
d
em@@
is@@
O@@
ic@@
mir
questi
ti@@
er,
queste
ti
ungen
zum
habe
all@@
mio
un'@@
fatto
ut@@
ap@@
om@@
au@@
ci@@
ali
stato
am
ica
vi@@
ische
os@@
sp@@
el
ul@@
us@@
lich
Questo
"
per@@
et
durch
Ihnen
eg@@
weil
cose
k
de@@
ischen
as@@
mia
vor
bi@@
ac@@
and@@
TED
due
'@@
parte
Er
to
ete
est@@
amente
wirklich
te,
Welt
ad@@
all'@@
unsere
immer
ogni
ra@@
V@@
e?
gi@@
der@@
viel
ter@@
par@@
ot@@
prima
s,
ett@@
im@@
ir@@
vor@@
g
meine
dal
dieses
ger@@
ber@@
ro@@
ihre
str@@
da@@
zu@@
ente
ist.
er.
mondo
e:
mi@@
Z@@
diesem
I@@
ang@@
keine
co@@
ung,
tra
po@@
siamo
ico
re
ale.
sul
liche
In@@
ie
ern
on
Quindi
diesen
sehen
dove
eines
her@@
com@@
viele
su@@
ant@@
ale,
ma@@
Was
me
Se
ge
are.
fi@@
Talk
op@@
sten
degli
chi@@
ist@@
gen
ell@@
amo
s.
poi
qualcosa
en?
wurde
ig@@
Ein@@
Subtitles
Transcript:
Der
enti
sta
zi@@
ec@@
quel
li
Also
noi
sein
ei@@
ste
sulla
att@@
Er@@
eb@@
col@@
sc@@
ung.
mai
ass@@
andere
il@@
sol@@
ungs@@
zur
chen
zwei
den@@
ihr
j@@
ing@@
kl@@
pr@@
ende
gen@@
quella
st
Leben
einfach
ed@@
haben,
possiamo
E'
ato.
Leute
te.
lichen
chi
m
fer@@
do
n
wo
I
anderen
ten,
jetzt
nostro
vedere
ancora
ess@@
bis
eren
Aus@@
are,
one
ito
L'@@
ono
leg@@
all
ris@@
ung@@
o?
cht
pl@@
dr@@
Zeit
dalla
3@@
ora
ato,
ek@@
ten@@
es,
cht@@
ev@@
gel@@
Wie
ce
fa
h
end@@
Art
Per
vita
.@@
isch
lu@@
ter
zione
ia
qu@@
inter@@
quanto
qui
cor@@
bin
grande
vol@@
ens@@
anz@@
ann@@
Sono
azioni
Jahren
damit
Al@@
nostra
suo
".
gente
em
2@@
anno
ta
ak@@
Questa
ori
dis@@
enza
de,
U@@
og@@
dies
Di@@
pro@@
car@@
dar@@
sind,
co
cre@@
endo
Ab@@
davvero
elle
cer@@
ast@@
sua
Man
Ho
alles
fr@@
sempre
Dinge
ert
ante
man@@
ni@@
o:
fin@@
mo@@
hatte
du
Jahre
tempo
waren
fl@@
nell'@@
ici
ino
eh@@
ob
no@@
gesch@@
mein
alt@@
ation
Ci
d'@@
ava
ero
nelle
10
sind.
et.
ier@@
an,
br@@
gr@@
hin@@
ser@@
volta
pass@@
et,
denn
tutte
selbst
vielleicht
ven@@
oc@@
senza
Abbiamo
nei
possono
lich@@
a?
lei@@
altro
tre
va
A
haben.
sehen,
ca
enden
l
che,
...
Un@@
far@@
Si
gest@@
machen
qualche
war,
pens@@
Vor@@
wieder
Le
ganz
Ar@@
rei@@
ef@@
erano
proprio
werden.
ire
avere
bu@@
ine
ric@@
ff@@
iamo
dopo
einige
amento
end
ihnen
nostri
stata
altri
Hier
dire
for@@
!
schon
quindi
n,
muss
Diese
port@@
rit@@
heute
tipo
voi
ina
uto
mar@@
?"
ken
geht
wer@@
f
bar@@
ari
nicht,
ati@@
min@@
edi@@
paar
ob@@
or
an.
Ed
ihn
seine
Qu@@
Quando
4@@
Be@@
molti
meiner
ander@@
ges@@
unter@@
ov@@
mal
sor@@
200@@
;
ik@@
sondern
circa
Mi
aff@@
le@@
stesso
unter
ch
ene
enn@@
unserer
zz@@
ica,
po'
ori@@
wissen
ica.
r
de.
Come
bl@@
ah@@
negli
Als
bisogno
drei
Ein
n.
5
amm@@
tun
1@@
Sp@@
sistema
viene
schl@@
storia
sei
anti
bil@@
acc@@
tras@@
20
meno
denen
dall'@@
ben@@
dov@@
zwischen
pf@@
eu@@
punto
en:
",
neue
etto
vom
ok@@
Bi@@
d,
geb@@
gew@@
dort
Re@@
nen
wei@@
ech@@
p
kommen
almente
sein.
oll@@
altre
gut
lavoro
mor@@
mon@@
men
ali@@
Zu@@
d.
form@@
genau
ern@@
Par@@
eln
schi@@
geh@@
mentre
mo
ali.
es.
20@@
7@@
Kinder
spr@@
Un
ten.
azione.
eten
off@@
sione
andare
ru@@
Jahr
So
Nun,
nun
ran@@
sein,
st,
6@@
pot@@
heit
aut@@
werden,
person@@
Geschichte
mal@@
ment@@
ra
Mar@@
werde
alcuni
ohne
sogar
Str@@
kein
fu@@
ihren
stiamo
gerade
unser
Dies
sion@@
Teil
ano.
fine
pen@@
aveva
reg@@
a:
enz@@
gra@@
Tr@@
inizi@@
creare
problema
zione.
sa
ben
medi@@
kann.
mit@@
davon
du@@
gab
mer@@
Ecco
%
eri@@
fosse
stanno
gener@@
be
Eine
atori
Da
fino
rat@@
Ihre
ellen
potete
voglio
cont@@
ico,
ve
z
Ch@@
dere
met@@
so@@
50
cin@@
ersten
quelle
den.
fen
indi@@
primo
Si@@
visto
hat,
nie
5@@
isch@@
'
azione,
verso
dati
men@@
pol@@
war@@
gehen
sarebbe
ati.
af@@
Sie,
3
nostre
stell@@
zioni
anni,
erste
art@@
mus@@
leb@@
2
ali,
inn@@
milioni
miei
test@@
ex@@
ico.
alen
ano,
ar
wird.
30
Br@@
ieren
sen
Ora,
as
pp@@
8@@
capire
cu@@
e-@@
tig@@
sin@@
avano
Una
giorno
potrebbe
kon@@
ich,
posto
sel@@
den,
da,
lin@@
vo
9@@
New
einmal
sagen,
hat.
Kon@@
etwa
ick@@
bambini
ore.
heraus@@
so,
dai
se@@
machen.
Millionen
enen
ai@@
ore,
Mo@@
avete
ihrer
pres@@
letzten
tiv@@
ini@@
fuori
ani
sagen
prot@@
ins
olo
durch@@
momento
forse
Fl@@
attraverso
jeder
mondo.
Gr@@
cambi@@
ite
tion
dobbiamo
gl@@
[@@
avo
x@@
En@@
ari@@
ati,
ens
iert
dir@@
ganze
stati
arsi
dazu
grado
best@@
dato
diamo
detto
veramente
warum
trov@@
100
Reg@@
meinem
molte
qualcuno
ungen,
Ora
ck@@
ott@@
nicht.
zion@@
ente.
Su@@
aiut@@
credo
quale
agli
ata.
fac@@
parlare
ft@@
volte
lich,
vent@@
hatten
meisten
sieht
Beispiel
Lebens@@
oggi
To@@
ini
iti
Pr@@
essi@@
pensare
nichts
Ber@@
anni.
dur@@
sto
geg@@
ve@@
sagte:
Bl@@
Tag
en."
etti
wi@@
grandi
dig@@
ft
int@@
El@@
amente,
fu
stra@@
Auf@@
ate,
atore
tem@@
Li@@
defin@@
wurden
Lo
gt
teil@@
dare
mu@@
chten
schen
wissen,
nuovo
ament@@
oni
k,
eit@@
immagin@@
itt@@
ette
gegen
aus.
contr@@
meinen
welche
Problem
kommt
ent
kann,
ita
ros@@
Im
alcune
ativ@@
licher
quasi
via
zione,
Frauen
far
te@@
war.
chte
sagte
este
son@@
etta
si,
cal@@
importante
kleinen
Grazie.
iti@@
fanno
allo
esse
ziemlich
Arbeit
interess@@
Prozent
atur@@
bra@@
eich@@
post@@
beg@@
eil@@
ach@@
amo,
ario
bile
chten,
cur@@
hal@@
nach@@
tutta
stessa
Io
Spiel@@
olog@@
ca@@
sa@@
Vi@@
pa@@
unseren
"S@@
ei
no
o-@@
azz@@
bar
oper@@
At@@
fic@@
isce
forma
lang@@
prendere
sen@@
tecnologia
ch,
sal@@
sent@@
cap@@
macht
avuto
donne
pon@@
ter,
wird,
Gi@@
hab@@
15
Ri@@
hi@@
cent@@
ep@@
ese
imm@@
lich.
app@@
kt
Quindi,
anti@@
siano
000
doch
fil@@
sich@@
fon@@
19@@
abbastanza
do@@
Ende
me,
not@@
specie
tratt@@
8
do,
zwei@@
ationen
st.
can@@
]
evano
mis@@
ola
Y@@
e."
get@@
des@@
ort@@
Mon@@
ente,
nehmen
voll@@
weniger
ede
gen,
bene
prov@@
u
Ma@@
entr@@
hr@@
ischer
mente
dice
maggior
ing
ner@@
indem
lui
6
sti@@
vengono
.000
anza
b
Um@@
bas@@
chiam@@
tigen
usare
ani@@
ata,
continu@@
quali
Dann
1
das,
dalle
Au@@
e'
eva
funzion@@
machen,
ont@@
schw@@
stellen
ern.
parl@@
Ihr
Pro@@
bili
viel@@
m,
penso
trovare
bei@@
dabei
enzi@@
Kl@@
y,
arbeit@@
frag@@
eig@@
7
tanto
ana
bel@@
esso
mat@@
atti@@
eigentlich
posso
us
aria
asse
gono
ich@@
ban@@
uti
gli@@
ll@@
secondo
finden
progett@@
4
da.
ern,
erte
ss@@
allora
denken
insieme
wor@@
Ger@@
Weg
certo
ganzen
sar@@
studi@@
Menschen,
facendo
fest@@
tig
weiter@@
Era
nis
sulle
avevo
sci@@
vostro
Land
Wei@@
bes@@
geben
kleine
problemi
e"
sioni
weiter
Che
contro
casa
mettere
ph@@
polit@@
quest@@
Medi@@
Pl@@
besser
compl@@
tes
Frage
ging
sull'@@
Nel
So@@
cervello
essen
leben
rest@@
at
lassen
oh@@
tige
tu@@
comun@@
do.
si.
ti.
ord@@
Denn
Gli
ho@@
numero
sollten
t:
quattro
Hand@@
ative
ma,
pro
wirk@@
to@@
fol@@
seiner
ete,
keit
persona
will
aggi@@
allen
aspett@@
keinen
tun,
Per@@
consider@@
pag@@
th@@
Cosa
acht@@
eggi@@
las@@
state
tra@@
Co@@
enza.
ihm
jemand
oso
quelli
Con@@
dist@@
essi
mut@@
ne@@
rel@@
tur@@
Land@@
abb@@
besch@@
idea
lavor@@
setz@@
sotto
star@@
vier
Bild
anzi@@
el,
lieb@@
vit@@
Schul@@
erst@@
amo.
gen.
itz@@
possibile
uman@@
Menge
aus,
gu@@
hin
lei
wunder@@
Nor@@
alten
cit@@
durante
present@@
sehen.
Unter@@
jeden
ole
ub@@
vedete
amente.
ante.
det
kam
Daten
ack@@
lasci@@
altr@@
invest@@
ster@@
ate.
beim
brau@@
suoi
wahr@@
Mal
Vi
Zeit@@
aggio
cht,
fa,
individu@@
ost@@
esempio,
vostra
irgend@@
spiel@@
weise
significa
emo
sap@@
Bo@@
Gehirn
agn@@
eren.
ner
onen
sag@@
tri@@
enza,
gh@@
speci@@
Stati
dello
ina,
Aut@@
lang
finanzi@@
invece
oli
pas@@
seit
und@@
ke
pre@@
vita.
Quello
chen.
ricerca
vielen
eren,
Vielen
eben
oft
quei
abbia
domanda
uta
40
evol@@
res@@
weg@@
esempio
ock@@
rag@@
senso
spar@@
vor,
Dollar
Voglio
denke,
err@@
ici,
igen
livello
oni@@
sui
vero
deve
nicht@@
Wasser
cost@@
erst
liches
sicur@@
sk@@
fast
wollte
0@@
ehr@@
ger
torn@@
wollen
bin@@
inc@@
iss@@
os
Idee
eigenen
ento
mondo,
Schw@@
arono
ti,
aver
o."
darauf
konnte
neuen
sembra
super@@
tratta
wir@@
Geld
glaube,
ide@@
mag@@
ose
beh@@
capit@@
ein.
nello
posi@@
Jetzt
Technologie
cambiare
tun.
Ge@@
co,
ige
Ges@@
altra
iniziato
oltre
onn@@
ecco
ell
finden,
9
pal@@
wenig
alizz@@
daran
facciamo
g,
ro
sollte
wegen
esi
segu@@
stand
tor@@
ungen.
trag@@
gruppo
por@@
co.
halt@@
jedes
komm@@
otti@@
semplicemente
Po@@
mie
dor@@
natur@@
pes@@
Bu@@
siete
Zukunft
unserem
Mit
di,
di.
avevano
bet@@
esi@@
est
ici@@
rem@@
Also,
fall@@
possa
ra,
brauchen
dic@@
ein,
evo
imp@@
ra.
"Ich
Ha
Nach@@
arci
gemacht
mp@@
,@@
ation@@
cht.
coll@@
colleg@@
enti.
ura
Du
zusammen@@
Dank.
ink@@
meglio
pubblic@@
Ex@@
arriv@@
heit@@
produ@@
seinen
visi@@
assi@@
evamo
gibt,
hei@@
poter
questo,
amp@@
enst@@
schau@@
denken,
ezza
fis@@
wir,
appena
lange
utilizz@@
wahrscheinlich
y.
dit@@
diver@@
ha@@
ja,
on,
osi
Gen@@
Ro@@
Warum
mento
progetto
spazio
costru@@
costruire
sier@@
t?
der,
ologi@@
Ent@@
chen,
corr@@
gioc@@
mess@@
stellen,
ute
mm@@
seh@@
stat@@
etwas,
scoperto
"N@@
Sh@@
ami@@
unden
Gra@@
Or@@
attiv@@
dire,
nuova
wach@@
ay@@
erk@@
ler@@
questo.
0,
and,
men,
so.
vediamo
utz@@
ang
difficile
troppo
del@@
piuttosto
Gef@@
Internet
jede
acqua
enze
interessante
utt@@
caso
chter
esist@@
preso
computer
dendo
iscono
otto
Beh,
appar@@
Dar@@
Raum
atto
bri@@
cinque
conto
part@@
elli
rig@@
Poi
abil@@
ehen
gute
soci@@
stand@@
successo
ina.
nas@@
Questi
Sk@@
Ur@@
aci@@
bell@@
cam@@
tut@@
Meine
e".
rete
sappiamo
weit
k.
Seite
agen
dollari
enk@@
enti,
enti@@
lungo
mitt@@
Weise
ihrem
paesi
probabilmente
cos@@
ici.
miliardi
ultimi
loc@@
portare
seinem
x
Se@@
cominci@@
hol@@
liber@@
piccolo
pri@@
spesso
Gesch@@
Jahr@@
beweg@@
cas@@
ecc@@
sagte,
Wer@@
stehen
Her@@
devo
luce
ane
chiamo
divent@@
fantast@@
mostra
sl@@
alist@@
asi@@
bringen
entdeck@@
S
cia
dent@@
mezzo
nah@@
vista
Com@@
ante,
en-@@
lichkeit
qui,
ieren,
impar@@
io.
issi@@
mano
mostr@@
sper@@
stellen.
uomini
ello
farlo
ker
niente
wurde,
ze
zier@@
Wissen
isches
schnell
soll@@
zer@@
Siamo
frei@@
spieg@@
Mann
astr@@
bau@@
dec@@
ori,
osserv@@
Kom@@
halten
me.
un'altra
arlo
don@@
li,
18@@
acci@@
arl@@
gehen,
migli@@
pan@@
richt@@
wer
Grazie
completamente
dav@@
lan@@
ret@@
vo@@
Kind
foto
fri@@
ko@@
quest'@@
radi@@
sicher@@
Dinge,
Welt@@
amenti
anto
tern
viv@@
Mil@@
biolog@@
diventare
lavorare
nessuno
uso
zeigt
el.
elt
insegn@@
inten@@
kauf@@
orn@@
vivere
eck@@
ess
gem@@
uti@@
199@@
CA:
Mein
bisschen
ca.
piac@@
piccola
vi.
a-@@
chte,
hai
moder@@
nor@@
Dieses
Gemein@@
arbeiten
diversi
go
kommen.
az@@
ch.
enz
fot@@
namens
risposta
sapere
zeichn@@
c
cercando
ena
energia
g.
scar@@
Di
Schl@@
ank@@
ation,
entwickel@@
gehen.
prim@@
sione,
wichtig
wurde.
zen
60
aer@@
conn@@
ieren.
inf@@
io,
meravigli@@
normal@@
proc@@
dern
doman@@
izz@@
limit@@
Frau
denke
mort@@
ram@@
Herz@@
anzu@@
migliore
quell'@@
ragazzi
schaft
USA
ange@@
avrebbe
je
li.
qualsiasi
svilupp@@
Milliarden
anno.
pt@@
verschiedene
Le@@
gesehen
sione.
zusammen
ambi@@
ion@@
ure
zw@@
Kur@@
O
eder@@
ismo
m.
pi
sit@@
vic@@
Auf
Possiamo
Wi@@
einander
geben,
nuove
pic@@
Bil@@
lag@@
ber
rappresent@@
emente
fatt@@
signific@@
detto,
ja
um,
uns,
val@@
12
base
corso
her
los@@
neur@@
posti
York
americ@@
anno,
fal@@
rieb@@
ach
aten
cercare
figli@@
mol@@
qualunque
se,
Nun
effetti
ert.
ge,
hatte,
ma.
porta
vist@@
wieder@@
Queste
atura
cose.
esser@@
icamente
modello
passiert
s-@@
zeigen,
armi
gleich@@
heit,
poco
ren@@
segn@@
vuole
weis@@
Grund@@
Pol@@
Projek@@
Sti@@
dau@@
dovuto
facci@@
habe,
intern@@
lieg@@
paio
son
c'era
ricor@@
sagt
Qui
Vide@@
fica
glaube
idee
Fil@@
Probleme
fahren
innov@@
omi@@
on.
Kor@@
bare
fe
mach@@
messo
oo@@
Man@@
Vielleicht
haf@@
intellig@@
macchina
uomo
's
Weil
Welt.
bevor
conc@@
gar@@
masch@@
ster
Ni@@
fahr@@
pu@@
qui.
spazi@@
trovato
Doch
For@@
anti,
anze
azion@@
fen,
glich
gui@@
industri@@
organ@@
straordin@@
wohl
chiamato
ert,
futuro
gar
kur@@
steh@@
cir@@
grazie
osa
persone,
scor@@
vogliamo
?@@
bereits
cellul@@
che.
eut@@
migliaia
popol@@
schein@@
vi,
diverse
Stadt
bekommen
corpo
entlich
genug
ill@@
ler
piace
Im@@
Teil@@
Um
a."
causa
comport@@
eden@@
gio@@
metter@@
Moment
ando.
finden.
sbagli@@
ter.
Zi@@
anti.
auf,
bedeut@@
dem@@
informazioni
Sache
anders
ih@@
religi@@
rispetto
seconda
All@@
Car@@
Bei
Grund
controll@@
deci@@
end.
oss@@
semplice
cher
einigen
guar@@
odi@@
ow@@
sah
sentito
sott@@
storie
Mutter
al,
ele
euch
he
Fragen
Fre@@
Sta@@
abile
aum
compr@@
dessen
gleichen
nome
sion
beiden
dono
Gel@@
Informationen
System
ay
bringen,
differ@@
pun@@
Kinder@@
alt
creato
menschlichen
wes@@
25
Ak@@
Pri@@
arvi
echn@@
priv@@
um.
vel@@
versu@@
Erde
dovrebbe
elettr@@
esso,
fangen
of@@
sens@@
verstehen,
Person
colp@@
conten@@
ebbe
emp@@
gleich
verb@@
vorrei
Con
Mi@@
Welt,
Wo@@
ard@@
posizione
stu@@
acca@@
cellule
cono
dachte
eo
esen
mir,
mittel@@
zeigen
ag
arr@@
erz@@
esperienza
forza
passier@@
succede
vere
Computer
Credo
Natur@@
genet@@
sem@@
tran@@
ust@@
Plan@@
cart@@
gerne
hatte.
jedem
miglior@@
nuovi
potere
tuo
Best@@
Kar@@
Rei@@
adesso
aper@@
aument@@
bene.
oben
one.
persone.
profon@@
Leuten
inci@@
ins@@
ologie
tion@@
verg@@
begann
giro
gn@@
incontr@@
mer
neg@@
verschiedenen
500
Vor
cominciato
dop@@
einfach@@
noi.
positiv@@
"H@@
Dov@@
Neu@@
Oder
Ph@@
Potete
ab
animali
ari,
benutz@@
cambiamento
geben.
w
Fahr@@
arte
bringen.
ppe
scuola
sei@@
vec@@
Dobbiamo
Geschichten
enorme
ft,
in,
kehr@@
mel@@
oi@@
rom@@
sche
sie,
tant@@
tempo,
Part@@
auf.
chiama
dich
kommen,
processo
serie
sistemi
stava
ah
h,
iger
tern@@
Dieser
Ideen
besonders
pubblico
richtig
studenti
!"
...@@
Danke.
Forsch@@
Qual@@
gir@@
hoff@@
diff@@
emo@@
mich,
prom@@
uale
Bau@@
Zeit,
anim@@
chten.
esattamente
kom@@
liegt
Form
Ju@@
Problem@@
cci@@
esc@@
etter@@
land@@
vers@@
viol@@
Bes@@
Fall
Schule
abbi@@
attr@@
conosc@@
fortun@@
gioco
ing,
inv@@
sue
Ort
bene,
lern@@
Antwort
Ben@@
bambino
col
cultur@@
dovremmo
organizz@@
sy@@
uom@@
Hanno
hier@@
iche
tere
vita,
zei@@
Prot@@
Sol@@
fotograf@@
itu@@
mes@@
otten@@
paese
primi
tu
Al
Beg@@
Energie
chiar@@
rei
Ant@@
Bene,
anza,
arb@@
etz@@
irgendwie
mo.
motivo
one,
riff@@
sistem@@
tent@@
Wal@@
ativo
auen
drei@@
fam@@
neu@@
Fol@@
Gehirn@@
Gl@@
Mit@@
achen
cento
deren
globale
visione
Afrika
agli@@
ea
giorni
giust@@
media
noi,
od@@
parole
pul@@
schaffen
steht
struttura
Penso
comp@@
econom@@
eten,
flu@@
innerhalb
libro
modi
musste
occhi@@
samm@@
veder@@
wollen,
200
Ide@@
aller@@
ativa
atz@@
dol@@
ft.
peggi@@
portato
sost@@
stellt
Frei@@
besten
disegn@@
giorn@@
potr@@
potuto
raccont@@
sagen:
sequ@@
to.
condi@@
fatti
lassen.
menschliche
reb@@
sprechen
to,
Arten
ann
bereit@@
dentro
heit.
usa
zioni.
zzi@@
Anche
Planeten
bedeutet,
guardare
l'idea
omi
ori.
sh@@
studio
00@@
Pa@@
aden
avi@@
digit@@
ono.
Gu@@
Ja,
Licht
aggi
amento.
avamo
gere
glaub@@
o".
oce@@
ragazz@@
Sek@@
ammo
campo
ender
gewor@@
imparare
sti
video
wert@@
Bet@@
Dr@@
Zwei@@
deut@@
ezz@@
heraus,
piccol@@
pio
propria
pubbl@@
qual@@
strada
tutto,
1.
Dat@@
Gruppe
Natur
Ru@@
Sar@@
Tag@@
dagli
donna
emmo
genommen
matt@@
potremmo
80
Hei@@
Ter@@
Web@@
avanti
centro
end,
fare.
felic@@
gran
gros@@
intorno
kam@@
prender@@
stimm@@
ando,
buona
ee
eher
ezione
import@@
manchmal
vano
10@@
Bilder
Indi@@
Studi@@
Tutti
anderes
auto
bis@@
hier,
mangi@@
oti@@
pron@@
risol@@
Gew@@
anz
ci,
cibo
cres@@
intr@@
menti
pren@@
sapete,
sechs
succ@@
trop@@
wo@@
Lehr@@
Schi@@
bo@@
egn@@
ey
governo
nahmen
occhi
ogen@@
ri
ur
aller
almente,
cli@@
lavoro.
oro
perf@@
rob@@
sul@@
ts
zioni,
alisier@@
asi
chiesto
fort@@
ind@@
mett@@
neh@@
potrebbero
vari@@
weg
Stellen
erstaun@@
gran@@
invent@@
lung@@
preoccup@@
qui@@
tel@@
Leute,
Minuten
Te@@
andato
aufzu@@
dies@@
eil
etti@@
schaft@@
tempo.
age
capi@@
er-@@
ou@@
prefer@@
servi@@
sich,
M:
Tran@@
X@@
altro.
anza.
fen.
kt@@
ulti@@
Buch
Mensch@@
Wissenschaft
bal@@
bambin@@
eigene
gibt.
parla
problem@@
reag@@
scopr@@
50@@
C
Organis@@
System@@
amin@@
bekann@@
fand
ident@@
lig@@
men.
mo,
nisse
oso.
pensato
tru@@
ved@@
"O@@
Vol@@
al.
centr@@
halten,
he@@
poter@@
verkauf@@
Av@@
Tutto
Versu@@
arri@@
ce.
faccio
findet
isch.
keiten
mesi
wel@@
Spr@@
glob@@
konnten
metri@@
spezi@@
zi
Forse
collabor@@
det@@
e...
habe.
mei@@
mil@@
ottenere
parti
saranno
stor@@
Stunden
au
erzeu@@
funktionier@@
immagini
natura
sam@@
untersu@@
weitere
Met@@
amb@@
apr@@
consi@@
deva
ete.
hinter
keit.
les@@
particolare
sicher
sicht@@
tief@@
tive
verbess@@
Sprache
Unternehmen
egen
eist@@
exist@@
luogo
mot@@
stelle
umani
waren,
Chi@@
Fr@@
Ha@@
Kin@@
TED@@
acht
azioni.
bel
eben@@
einzige
scienza
sviluppo
trasform@@
',
Allora
all'interno
auszu@@
bile.
braucht
conosci@@
e?"
etto.
mare
red@@
robot
schauen
steck@@
verstehen
Familie
Ist
Punkt
Vir@@
Vortrag
Zum
dimostr@@
economi@@
imparato
lingu@@
macch@@
piccoli
ries@@
sen,
spost@@
Noi
Werkzeu@@
cat@@
cerc@@
improvvis@@
ingu@@
prem@@
razione
tipi
guerra
kr@@
kre@@
meines
ologia
ragion@@
sco@@
unk@@
B:
Bru@@
Haupt@@
avrei
devono
fig@@
mi.
om
regol@@
uni@@
versch@@
Auto
Krank@@
Lu@@
Projekt
bedeutet
chie@@
ew@@
pressione
Bab@@
John
andel@@
ari.
complet@@
crescita
cri@@
eiten
etto,
fat@@
icht@@
lav@@
ono,
plic@@
po,
prest@@
puoi
sacco
Regierung
Universit@@
ath@@
ation.
chte.
misur@@
mont@@
questione
rec@@
spi@@
tua
vin@@
Ne@@
ce,
grei@@
ito,
pover@@
recht
18
condivi@@
dem,
dente
differenza
gestellt
leist@@
ohn@@
scel@@
stessi
verw@@
ystem@@
Augen
David
Materi@@
Wel@@
aliment@@
alto
applic@@
convin@@
gend@@
l'in@@
madre
Kopf
Mag@@
Patienten
accor@@
acqu@@
ambiente
arrivare
azioni,
chieder@@
izi@@
orient@@
prev@@
ultimo
Bel@@
DN@@
batter@@
comunic@@
dom@@
fel@@
possano
rier@@
sage
usato
zahl@@
100@@
DNA
Hand
also,
dimension@@
geschi@@
giorno,
glauben,
hi
innen
kamen
perc@@
prepar@@
schwer@@
vostri
Gesellschaft
Haus@@
aspetto
coinvol@@
fa.
lo@@
pia
Krieg@@
Musik
Ogni
a".
as,
domande
gleiche
letzte
rac@@
uch
unde
waren.
Macht
Tier@@
alz@@
aver@@
cel@@
dir
dung
gri@@
oggi,
oggi.
secon@@
sorg@@
tit@@
0.
Google
Min@@
deb@@
film
gern
nen.
no,
Am@@
Gut@@
Hause
Hin@@
almeno
calcol@@
dott@@
er:
falls
ito.
rot@@
Kan@@
aiutare
ase
endlich
epi@@
esa
eten.
famiglia
forme
hn@@
klein@@
mezz@@
ogn@@
possi@@
resist@@
tal@@
vogliono
Mc@@
Unsere
Vater
Viele
Wer
a'
bess@@
diventa
erung
ga
gesagt,
kurz
leben,
mi,
sprechen,
steig@@
terra
verbin@@
versuchen
Mut@@
atric@@
hervor@@
niss@@
ogli@@
pensiamo
Bei@@
Lassen
Mat@@
Selbst@@
baren
chiamata
formi@@
je@@
migliori
ora,
rendere
setzen
telef@@
usando
viamo
zwar
Fel@@
Grunde
Indien
Wasser@@
direkt
fine,
hoch@@
mensch@@
of
schaffen,
"Non
Ap@@
Ihren
equi@@
programma
rin@@
tau@@
viaggi@@
11
Chris
Inform@@
ans
as.
concentr@@
dietro
educ@@
eni@@
interag@@
necess@@
omm@@
ordin@@
po
rende
D
ab.
cammin@@
cav@@
cio
deciso
eranno
leben.
lernen
log@@
mercato
nutz@@
occup@@
ograf@@
passato
periodo
punt@@
sentire
Arbeit@@
Mal@@
Ric@@
Uni@@
ace
bor@@
cl@@
daran,
design
ehr
ens,
fass@@
guardate
musica
omet@@
schaften
zul@@
Gol@@
assen
chim@@
desig@@
diment@@
divert@@
evi@@
fronte
isch,
Europ@@
a"
ausge@@
crit@@
essimo
materi@@
og
over@@
render@@
vicino
zieren
Hel@@
api@@
cura
l'ho
orizz@@
rett@@
rifl@@
spor@@
stellung
stess@@
strumenti
vis@@
woll@@
ystem
zeigt,
Eltern
Engl@@
controllo
iment@@
muov@@
no.
sig@@
suon@@
tir@@
trova
universit@@
volta,
Mor@@
Nutz@@
cond@@
jedoch
los
oci
sangu@@
solche
tante
Kindern
Proz@@
abi@@
amento,
bit@@
ekt
erkenn@@
essa
evi
gkeit
guer@@
machte
parola
realizz@@
satz
schul@@
ucci@@
uss@@
China
Dopo
Durch@@
Europa
ache
allem
ator@@
bild@@
cr@@
denk@@
e;
guard@@
i?
ice
leit@@
mic@@
orie
ull@@
volevo
Bild@@
Dis@@
atamente
atter@@
bauen
conos@@
eremo
eser@@
fatto,
find@@
funziona
mal,
yn@@
Bro@@
Design
Entwicklung
Jahrhunder@@
agna
ani,
atti
druck@@
emer@@
fondament@@
geht,
ierte
in.
isse
lanci@@
nell@@
schick@@
sein@@
test
verli@@
wirtschaft@@
Ero
assolutamente
hand@@
iert.
kn@@
lass@@
lassen,
loro.
padre
ragione
198@@
Energi@@
amer@@
gut.
halten.
ignor@@
let@@
sehr,
stavo
verwend@@
weiter.
zeit
Afrik@@
Cor@@
Frag@@
dev@@
energi@@
ino.
ire.
ling@@
mos@@
pat@@
schaft,
sitz@@
tanti
vera
14
15@@
Bar@@
Cer@@
Gener@@
Gesell@@
Inter@@
Tiere
alien
ations@@
cc@@
faccia
famigli@@
forder@@
gal@@
gemacht.
linea
rim@@
spl@@
sprech@@
tionen
Dam@@
Lebens
Nicht
accad@@
assicur@@
bast@@
beobacht@@
fossero
fragen
halb
kenn@@
massi@@
risultato
schnell@@
termini
Leb@@
Mitt@@
Unterneh@@
affrontare
anc@@
bian@@
bile,
centinaia
elo
fun@@
krei@@
lauf@@
mein@@
ovviamente,
partecip@@
scen@@
unseres
voc@@
zieh@@
A,
Ad@@
Am
Angst
Fall@@
Stu@@
ahn@@
anda
cose,
geschaff@@
mem@@
oi
pian@@
popolazione
raccol@@
trau@@
Ihrem
arli
avevamo
kri@@
nimmt
o"
prodotto
strateg@@
techn@@
Weg@@
accett@@
azionale
buon
cancro
cresci@@
en?"
esso.
facil@@
giorno.
imento
impres@@
nutzen
oph@@
remo
schreck@@
us,
vanno
Me@@
Potr@@
ativi
ca,
economia
ent.
essen,
funktioniert
informa@@
ingen
kommt,
niemand
osp@@
paes@@
veloc@@
/@@
Kunst
denza
descri@@
dire@@
enten
gang
issimo
scritto
wann
Heute
Isl@@
Lage
Monate
Roboter
amici
ascolt@@
erwart@@
ffen
importanti
isti
keit,
meccan@@
nehmen,
neu
obwohl
ogi@@
resto
selben
sola
soldi
verschw@@
'.
ami
arla
damals
davanti
enor@@
kost@@
man,
mist@@
piccole
prog@@
re,
risultati
sett@@
situazione
stoff@@
uli@@
wichtig@@
zeig@@
1,@@
Fran@@
Kr@@
Zusammen@@
alte
arbeiten,
compet@@
dicono
dopo,
esten
jen@@
lavoro,
molto,
o...
punti
universo
voll
De@@
Ding@@
affascin@@
bass@@
caus@@
denken.
endi@@
ere.
heiten
mili@@
minuti
mur@@
ogra@@
ome
paura
prodotti
program@@
sarebbero
toll@@
Film
Menschen.
Sachen
War@@
Wor@@
Wort
art
folgen@@
ist:
meine,
ora.
ota
pianeta
poteva
san@@
storia.
tornare
v
300
Fin@@
Industri@@
Uniti
aler
beginn@@
capito
conclu@@
cosa.
cultura
en;
erl@@
eso
fondo
geht.
jemals
kontrolli@@
nemmeno
nu@@
pos@@
possibil@@
respons@@
schwer
sen.
sint@@
sopra
uh@@
und,
vogli@@
ziert
Anfang
Ang@@
Nach
ativen
aut
ck
indietro
maniera
pianet@@
prat@@
rivel@@
se.
wollen.
Denken
Eis@@
Ess@@
Punk@@
Raum@@
Universum
Verhalten
beeinflus@@
darin
desider@@
facile
heb@@
o?"
org@@
piano
reste
rima@@
scoprire
sprechen.
verur@@
Gehir@@
Gleich@@
ani.
cell@@
dest@@
eln,
esseri
gemein@@
pazi@@
scrivere
zeit@@
00
E,
Kre@@
Pens@@
Ser@@
Uno
Zw@@
arti@@
bestimm@@
detto:
dig
ers
fall
inizio
malattie
mam@@
richi@@
rum@@
stellte
terri@@
umano
ziehen
Deshalb
Ho@@
Super@@
anschau@@
chirur@@
dett@@
fas@@
fra
gan@@
interessan@@
ker@@
princi@@
sito
tura
virtu@@
"A@@
"Das
Chem@@
Klima@@
Lei@@
Ok,
Stand@@
ario.
c'erano
eht
ere,
ero@@
fav@@
hatten,
hil@@
kann@@
keit@@
kor@@
legger@@
nahm
recht@@
stesse
tecnologie
venire
visu@@
Haus
Pf@@
altro,
chen@@
essero
estrem@@
fanden
hatten.
iv@@
modo,
nachzu@@
pensate
risolvere
sapete
schli@@
schwar@@
sionen
soff@@
sugger@@
unglaublich
welches
Geg@@
comportamento
disc@@
erlaub@@
genere
gruppi
letter@@
liebe
mini@@
persino
schaff@@
scritt@@
soprav@@
stamp@@
unque
vorher@@
zentr@@
Africa
Besch@@
Jahren,
Tal@@
anderer
disponi@@
eri
kennen
qualc@@
registr@@
serve
sf@@
siv@@
yp@@
0%
Architek@@
Jo@@
Tages
Tex@@
ahl@@
cic@@
disse
erten
merk@@
passare
passo
pezzo
rebbe
sagt,
semplic@@
stare
sten,
vede
Bra@@
Geh@@
Mark@@
Unterschied
angen@@
ario,
edere
esper@@
fre@@
frequ@@
ista
itiv@@
minut@@
origin@@
osped@@
r.
schlag@@
settiman@@
ult@@
,"
Angel@@
Beispiel@@
Gre@@
Hilfe
Spiel
alta
attenzione
aub@@
cib@@
dico
eff@@
eng@@
giovani
govern@@
helfen
iert,
imenti
isco
lam@@
movimento
music@@
niemals
notizi@@
omen
parlando
parlato
sec@@
sed@@
siert
solito
zio
ales
ar,
beste
dici@@
komplex@@
land
plan@@
propri@@
scher@@
statt
strumento
tagli@@
voi,
70
Hy@@
andel
kleines
mani@@
ni.
ritt@@
teoria
vivono
voi.
"M@@
12@@
Alle
Beweg@@
Einige
Erst@@
Fot@@
Tage
ab,
abili
bauen,
cosa,
dachte,
enh@@
entwickelt
farlo.
genau@@
lo.
ort
rispost@@
sorprend@@
sorta
vide@@
vor.
wass@@
wollten
Cl@@
Namen
Secon@@
Tit@@
Wil@@
Win@@
anges@@
arbeiten.
aw@@
benef@@
betra@@
bezahl@@
brev@@
deshalb
euer
f,
forma@@
ismus
mussten
nahme
ron@@
versuchen,
zweite
Chi
Oggi
Sinn@@
abit@@
adatt@@
ana,
auch,
bat@@
eit
eller
etr@@
ex
flieg@@
ing.
modell@@
nessun
physi@@
situ@@
sosteni@@
tar@@
unglaub@@
vero,
ys
zeu@@
Art,
Cina
Ihrer
avrebbero
bar.
costruito
determin@@
elektr@@
etro
ig
itto
nen,
passiert,
pazienti
riusci@@
scheint
sieht,
tiamo
venne
vicin@@
woh@@
Sehen
Thema
Von
Woche
aree
aria.
bringt
chio
donn@@
dovete
fatta
genauso
inst@@
mark@@
micro@@
omb@@
sie.
Sal@@
Schauen
Seit@@
Vorrei
ana.
area
arg@@
aten,
chiunque
isol@@
lig
merc@@
ricord@@
salute
wurden.
Design@@
Et@@
Kapit@@
Okay,
Yor@@
beide
darum,
endo.
entrare
folg@@
mag
nis@@
oren
piel@@
risorse
sentir@@
unten
via.
volete
wil@@
C'@@
Frau@@
Jeder
Mikro@@
Ok@@
Pot@@
at,
behandel@@
brachte
daraus
e!
ehen,
endes
errei@@
ingegner@@
ini,
pericol@@
posta
ppi@@
quell@@
scala
schaffen.
separ@@
statt@@
testa
valore
wend@@
will@@
16
90
Not@@
Op@@
Res@@
ard
eden
ensch@@
farma@@
funktioniert.
icol@@
impegn@@
ino,
magari
oso,
reden
riguarda
sosten@@
vite
Eff@@
Physi@@
deck@@
eter@@
genitori
hoch
lung
mettono
pe@@
provare
speriment@@
zehn
zu.
Beh@@
Hinter@@
Krebs
Test@@
Verbindung
adi@@
alles,
arriva
assist@@
c'@@
discorso
eile
flus@@
guadagn@@
id@@
loro,
olo.
permette
pochi
quant@@
reib@@
sac@@
sicurezza
soziale
stim@@
tig.
un'idea
uss
Elektr@@
ade@@
agricol@@
avesse
aziende
costo
davon,
decis@@
eigen@@
ella
ett
glauben
grupp@@
mente,
miteinander
nucle@@
raff@@
ranno
serv@@
stru@@
tempor@@
zuvor
zza
Ku@@
Oze@@
Sprach@@
aum@@
bemerk@@
bring@@
carb@@
condividere
das@@
le,
mani
superi@@
tav@@
ucc@@
uns@@
verbreit@@
"W@@
Erfahrung
Fortsch@@
Lehrer
Th@@
Tre@@
aio
arle
assu@@
campi@@
ci.
cuore
evole
pad@@
realmente
rius@@
sub@@
verdi@@
wart@@
zuneh@@
Ban@@
Flugzeu@@
Freun@@
Objek@@
absolut
altern@@
blick@@
dank@@
das?
distribu@@
effici@@
einfache
ezion@@
iniziare
is,
nung
tivi
ton@@
tot@@
vir@@
Dunque
India
Neur@@
Pi@@
Ros@@
Wochen
Zei@@
bauen.
bleib@@
disse:
eni
heut@@
nenn@@
oggetto
opp@@
produzione
salv@@
sanit@@
soll
wider@@
Gesetz@@
Ira@@
On@@
Ster@@
Vereinigten
Zeu@@
ande
asch@@
domin@@
edia
erv@@
f.
gebaut
gesagt
impatto
konzentri@@
mb@@
nessuna
pil@@
ppure
propri
sping@@
unque,
volont@@
zone
zus@@
A.
Bri@@
Comput@@
Sor@@
complic@@
einzu@@
forte
gab@@
immagine
infin@@
inser@@
kurz@@
lok@@
male
mass@@
me@@
morte
motiv@@
neues
oggetti
relazione
ack
basso
benutzen
dazu,
discus@@
ehen.
einig@@
erkennen,
ese.
hinter@@
problema.
prof@@
scri@@
AID@@
Desig@@
Kat@@
Mus@@
bili.
bre@@
comune
crimin@@
eins
famili@@
getan
hl@@
komplett
ricev@@
scoper@@
segret@@
sicuro
ut
y:
zin@@
And@@
Col@@
Pal@@
Wahl@@
Wort@@
achten
commerci@@
dita
gam@@
nennen
ond@@
sanno
schaft.
sette
sole
ts@@
voller
G:
Jung@@
Kunst@@
Mik@@
Ne
Schritt
Team
analizz@@
cervello.
cita
dam@@
dass,
diverso
ecchi@@
fru@@
helfen,
hing@@
ick
macht,
ol
pratica
raccon@@
riguardo
rilev@@
spielen
ste,
terzo
tum@@
uren
Reihe
Sign@@
Wissenschaft@@
abile.
cambiamenti
cher@@
das.
den?
diag@@
estern@@
kte
l'inter@@
libr@@
medizin@@
neanche
pensa
produrre
selbst@@
spann@@
tigkeit
vert@@
Gott
Jahren.
Kno@@
Ton@@
combin@@
dag@@
din@@
forsch@@
grundleg@@
lernen,
maggiore
ricer@@
simile
sonst
standen
stri@@
us.
vero.
Alcuni
Augen@@
Eig@@
Gegen@@
Pu@@
Technologien
atte
atten@@
besu@@
cant@@
erw@@
ezza,
fehl@@
gewinn@@
immaginare
krank@@
lavorato
libri
macht.
nachdem
ografi@@
piant@@
sagt:
wohn@@
-B@@
Autos
Fisch@@
Freunde
anal@@
attravers@@
bekommen,
eder
ener@@
fang@@
incredibile
izione
langsam@@
lie@@
nulla
os,
pieg@@
re.
rispon@@
scienziati
sfor@@
sto@@
tutti.
Arz@@
Kultur@@
Lag@@
Nat@@
Prima
aggiung@@
and.
anten@@
effetti,
erkann@@
ese,
gi
ific@@
moral@@
progetti
sempr@@
soluzione
stamm@@
will,
"T@@
24
He@@
Krei@@
Mass@@
Medik@@
Nord@@
Them@@
Vorstell@@
accesso
accia
arne
brill@@
e",
effetto
esiste
gegen@@
herum@@
importante.
industria
lato
ness@@
ot
profession@@
sozialen
sterb@@
termin@@
valut@@
verstehen.
zur@@
Denk@@
Mentre
Universu@@
ahr
dra@@
fare,
kop@@
nehmen.
off
olo,
tutto.
unt@@
vale
viaggio
west@@
Alla
Alles
Erd@@
Glob@@
Ir@@
Kultur
Lond@@
Luft
Teile
Zahl
Ziel
ast
bein@@
essione
ge.
ini.
lavorando
leader
ogen
perch@@
pers@@
quad@@
risult@@
scom@@
sicht
ument@@
All
Ern@@
Geb@@
Gebur@@
Pass@@
amico
anden
eln.
etti,
incredi@@
letz@@
pac@@
programm@@
raggiungere
scal@@
schle@@
struttur@@
tradizion@@
zeigen.
zusamm@@
Bewegung
Cent@@
Hoch@@
Interess@@
Liebe
Nicht@@
a?"
amore
atur
bekommen.
casa.
eben.
egu@@
entschei@@
euer@@
fur@@
gaben
identific@@
importante,
iva
matemat@@
materiale
movi@@
o;
reale
settimana
suffici@@
zeige
197@@
Anzahl
Komm@@
Leben.
Mess@@
No@@
Oh,
Prozess
Rest
Wissenschaftler
Zusamm@@
ai,
aktiv@@
ance
ane@@
asp@@
bewer@@
bisogna
consu@@
darum
die,
dovrebbero
nam@@
spricht
ums
wichtige
"Was
Flu@@
Gedanken
Herausforder@@
Kohl@@
Mann@@
Typ@@
anstatt
ationen,
aufen
azienda
chi.
lus@@
modelli
molta
omat@@
po.
prende
ragazzo
wen@@
Can@@
Cre@@
Dio
Isra@@
Jahrzehn@@
K:
San
Zentr@@
attacc@@
bestimmten
echte
emis@@
figli
fragte
guten
hiel@@
mittel
oppure
prima.
rifi@@
stavano
tecn@@
terror@@
-S@@
As@@
Ci@@
Inn@@
Meinung
Nur
Rich@@
cot@@
divers@@
gang@@
gefunden
hunder@@
ktion@@
kultur@@
lett@@
licht
numer@@
occident@@
sero
sicher,
sieben
societ@@
statist@@
teri@@
vostre
America
Entscheidungen
Gar@@
Krieg
Modell
My@@
Schn@@
Wirk@@
casa,
chi,
esimo
estremamente
gingen
ismus@@
tausende
teil
terren@@
univers@@
voce
wur@@
zeich@@
zut@@
Americ@@
Dank@@
Gemeinschaft
Gesundheits@@
Lin@@
Platz
Produk@@
Stiamo
Video
Wahr@@
Zellen
ada
bellissi@@
betracht@@
brut@@
cerca
climat@@
druck
entfern@@
handel@@
iche.
istru@@
km
legge
lizz@@
na
nonn@@
oma
pe
quadr@@
usano
verr@@
vorzu@@
Richtung
Sem@@
Sicherheit
Telef@@
afric@@
class@@
concetto
dann,
echten
fatto.
gebau@@
genu@@
giusto?
hoh@@
ine,
informazione
into
kommt.
lont@@
multi@@
salut@@
sogn@@
subito
temper@@
trovano
wichtig,
Auch
Immaginate
Ko@@
Terror@@
a...
attac@@
besteht
bitte
blick
dio
fizier@@
futuro.
geda@@
gemeinsam@@
herum
ine.
interessier@@
interpret@@
nuov@@
nutzen,
plast@@
schwierig@@
sehe
tale
vest@@
virus
zell@@
Foto
Galax@@
Ob@@
Rau@@
Wohn@@
ade
arlo.
ater
emente,
en"
endo,
entro
falsch
fico
fing
intu@@
leggere
lief@@
macchine
pir@@
ricordo
tik@@
vern@@
zona
An
Dem@@
Dunque,
Licht@@
Netzwer@@
Regier@@
Situation
asso@@
autom@@
bella
chied@@
cosi@@
devi
diventato
endono
generazione
io@@
kleiner
komplizier@@
le.
nuovo,
ognuno
oni,
potreste
raft
tragen
unci@@
z.
Del@@
Essen
Farb@@
Terra
Wass@@
Wirtschaft
Zu
confer@@
eben,
effek@@
esplor@@
essenzi@@
etti.
hier.
libri@@
liegen
mache
oggi@@
petrolio
sfi@@
suono
tivi@@
urban@@
verwenden
volle
A-@@
Aktiv@@
Do@@
Oper@@
S.
ativ
bald
ball@@
bessere
cattiv@@
daher
ezza.
grat@@
ierten
letto
momento,
ni
normale
presa
richtig@@
rifer@@
sah@@
util@@
weltweit
wurden,
z,
Pen@@
Sapete,
Wahrheit
Zell@@
acqua,
aggio,
basier@@
copi@@
fer
gas
gio
giov@@
inform@@
langen
leicht
line@@
mette
parol@@
passiert.
prezz@@
seg@@
tess@@
ume
uno,
"E@@
196@@
Cit@@
Coll@@
Dingen
Erinner@@
Fak@@
Geschichte.
Job@@
Lieb@@
Musi@@
Studenten
alter
ater@@
cambiato
chiamiamo
condizioni
dicendo
einzelne
entemente
formazione
gel
gend
genit@@
gesamte
ingt
junge
linguaggio
metri
muss,
politica
prigi@@
progr@@
remmo
satz@@
scon@@
sog@@
tern,
tiene
trasfer@@
25@@
Beziehung
Ec@@
Lui
Publikum
acqua.
ambient@@
amerikanischen
automat@@
dava
eilen
entschi@@
essen.
hen
laboratorio
polizi@@
potenzi@@
quar@@
sau@@
scatt@@
sic@@
tiger
unden.
versione
wand@@
za
13
17
Adesso
Blut@@
Fri@@
Gei@@
Jahrhundert
Sonn@@
Stimm@@
Wo
Wol@@
affer@@
alber@@
andati
bitt@@
coloro
consapevol@@
deine
dip@@
ement@@
eravamo
etri
gleichzeitig
kam,
konnte.
numeri
oria
particol@@
pros@@
ricerc@@
riff
schied@@
sfida
sozi@@
stark
system@@
uto.
zuerst
Anal@@
Arbeits@@
Blick
Eines
Famili@@
Forschung
Ihnen,
Mom@@
Nacht
Roll@@
Rus@@
Tra@@
Tro@@
Wes@@
Wieder@@
Zugang
altri.
ats@@
camp@@
colo
einge@@
fate
igen,
ihres
mehr@@
modo.
nov@@
online
possibile.
sch
schrieb
succeden@@
superficie
teilen
uch@@
umin@@
17@@
Dok@@
H:
Invest@@
Labor
Los
Metho@@
Richard
Rob@@
Staaten
Sym@@
Wohl@@
besitz@@
erhalten
erie
europ@@
glichen
iche,
kan@@
lasciato
madr@@
preced@@
rischio
sofort
strutture
successi@@
tutt@@
wie@@
zu,
"Wir
Aufgab@@
Beispiel,
Bot@@
Freu@@
Freund
Generation
Leist@@
Robo@@
Stimme
Un'@@
allein
angen
associ@@
bliot@@
caso,
conoscenza
dungen
erfol@@
globalen
h.
hast
ia,
internation@@
jem@@
l'acqua
ni,
non@@
orig@@
quanti
ripet@@
sb@@
Allora,
Boden
Gest@@
Hau@@
Idee,
Kreb@@
Ox@@
Posi@@
Rolle
S:
Sache,
Sap@@
Studie
Umgebung
ange
ariamente
ateg@@
batt@@
beginnen
canz@@
compagn@@
dann@@
impieg@@
incredibilmente
materiali
messaggio
mmer
pensiero
piedi
posit@@
prossimo
ruolo
sensi@@
sprach@@
studi
ugu@@
versucht
vuol
Firma
Gewalt
Grund,
Mensch
Tel@@
Ti@@
Waff@@
ame
attu@@
bereit
bist
breve
carta
danno
erforsch@@
frage
gebra@@
gewal@@
grazi@@
ligen
mus
ona
osservare
percento
poll@@
prova
psic@@
rad@@
rein@@
ricevuto
sil@@
sist@@
sociale
400
:@@
Entdeck@@
Gedank@@
Guar@@
Innov@@
Mis@@
Paul
Person@@
Psych@@
Sicher@@
Sinn
approccio
arbeit
casi
coltiv@@
daten
fece
heits@@
immer@@
invit@@
jemanden
no?
onder@@
pensano
perfek@@
prime
realizzare
richtigen
stori@@
verwandel@@
voleva
Ad
Bedeutung
Molti
Schwar@@
Vort@@
abzu@@
ama
betr@@
consegu@@
cosci@@
crescere
dete
drog@@
emozion@@
entw@@
eucht@@
gefrag@@
gegeben
geschlos@@
ieb@@
klar,
lage
luoghi
quarti@@
recent@@
redu@@
singolo
unit@@
vive
viver@@
win@@
2000
Des@@
Einzel@@
Ord@@
Reise
Uniti,
Verbin@@
aggio.
alten.
ask@@
atz
azi@@
compon@@
costa
danach
dimensioni
divi@@
ege
evoluzione
furono
ie.
inare
ire,
iz@@
minim@@
mostrare
null@@
oto
petrol@@
poi,
richtige
settore
stanza
student@@
%.
16@@
Amer@@
Computer@@
Dic@@
Gesundheit
Pe@@
Problem.
Programm@@
Schmer@@
Wert
ald
anten
beschlos@@
confron@@
dere.
entwickeln
fen@@
ftwar@@
gemacht,
gesetzt
giusto
invi@@
lor@@
perio@@
perso
potevano
rivoluzione
roh@@
sagten
schneller
solchen
verbr@@
zogen
Daten@@
Far@@
Fern@@
Gebi@@
Gem@@
Kam@@
Nella
Sy@@
Vorstellung
Zeit.
am,
ancora,
cert@@
femmin@@
figlio
gut,
hi,
iker
illeg@@
indic@@
ine@@
inner@@
molec@@
ogg@@
prod@@
setzen,
sollte.
sov@@
succe@@
usiamo
vorstellen,
worden
"La
4,
Cos@@
Ins@@
Kommunik@@
Mot@@
Muster
Technik
Zahlen
arie
bewegen
bildung
dan@@
dicev@@
dollari.
emand
erebbe
erwar@@
ie,
lent@@
manche
o!
omo
raggiung@@
regole
senti@@
sociali
sugli
vinc@@
Geheim@@
L:
Pat@@
Religi@@
Risik@@
Selbst
Solo
Sper@@
affi@@
alle,
appren@@
are?
aria,
atmos@@
aufgrund
beschreib@@
dat@@
dopp@@
einzelnen
elim@@
ester
fisica
fliegen
gesamten
guardando
hau@@
herauszufinden,
is.
kin@@
letzt@@
lige
migliorare
ms
praticamente
psych@@
scienti@@
studiare
sur@@
uffici@@
umana
vertr@@
wenig@@
Amei@@
Ander@@
Avete
Blu@@
CO@@
Da@@
Fing@@
Glaub@@
Taus@@
abbiano
besser@@
cominciare
comunque
dice:
elev@@
em,
eno
erkennen
ettiv@@
faceva
fum@@
geleg@@
gesehen,
hy@@
ia.
lingua
mostrato
ne,
och
our@@
potesse
roba
schri@@
secolo
tun?
0.000
Einst@@
Internet@@
Nein,
Tod
Umwelt@@
assi
bekam
bisogn@@
bt
chem@@
conserv@@
coper@@
elettric@@
enni@@
ens.
evit@@
fach@@
grund
ie@@
lasciare
lunga
meist@@
mod@@
parole,
pianeta.
prima,
punkt
reck@@
salvare
seite
sind@@
storia,
ungsk@@
we@@
wusste
1,
Goog@@
Maschin@@
Mitte
Pil@@
Schri@@
Sig@@
Zukun@@
abbandon@@
allen@@
assero
atori,
avvicin@@
cen@@
distru@@
entweder
fangen,
fron@@
gemeinsam
gut@@
ite.
machten
mmer@@
ovvi@@
problema,
pur@@
quindi,
rieben
sam
scienzi@@
sento
sowohl
stehen.
All'@@
App@@
HIV@@
Mach@@
Meter
Mittel@@
affront@@
avremmo
cardi@@
crea
d-@@
devano
eck
esempi
fred@@
l'ha
prezzo
probi@@
prossimi
rapi@@
ritorn@@
sensazione
Kontrolle
Men@@
Tief@@
alten,
ant
arm@@
bambini.
bir@@
bur@@
chia
chiave
continuare
dent
dice,
disse,
eci
esti
faszinier@@
fte
mappa
muss.
neben
notte
offen@@
parte,
preci@@
provato
scientific@@
scorso
sim@@
spettac@@
stag@@
top@@
ultima
violenza
weltwei@@
wichtiger
wuch@@
"Oh,
Ac@@
Amerika
Bed@@
Gelegen@@
Karte
Lern@@
Nachbar@@
Sach@@
Technologi@@
arre
ba@@
breit@@
digen
diverso.
echt
ema
emi
enzen
giovane
hat@@
intell@@
iti,
konnte,
malattia
matematica
milit@@
obiettivo
oder?
oni.
onia
osci@@
perfett@@
piatt@@
produzier@@
prossima
risp@@
sembrano
soltanto
superfic@@
wissenschaft@@
0ern
2.
Betra@@
Chr@@
Gesund@@
Li
Spi@@
The@@
]@@
anf@@
beginnt
bestimmte
crisi
diejen@@
eht,
eleg@@
entrambi
falli@@
fos@@
gt,
i:
icare
immedi@@
ioni
malatti@@
medicin@@
obi@@
ovviamente
sagen.
settimane
sing@@
succeder@@
testen
tramite
uno.
uns.
versteh@@
wechsel@@
zusammen.
Cam@@
Demokratie
Hol@@
Leben,
Preis
Problem,
Publik@@
Tu@@
Ven@@
chie
cito
gil@@
her,
ich.
ien
is
letteralmente
mehr.
milione
mondi@@
naturale
osa.
prei@@
que
s:
sala
setzen.
stes
tempi
tocc@@
unica
vier@@
zog@@
8,
Lei
Wahrschein@@
abitu@@
ar.
credi@@
einzi@@
film@@
fragen,
idea.
inizia
komme
l'abbiamo
lose
omos@@
prend@@
quotidi@@
reso
rie@@
scuole
sodass
soddis@@
sopr@@
stehen,
suchen
traff@@
tur
venti
wachsen
zumindest
Aspek@@
Damit
Em@@
Leg@@
Papi@@
Prog@@
Struktur@@
Tat
Wett@@
a;
ass
cercato
cort@@
destr@@
ebbero
eme
foc@@
gesetz@@
getro@@
hinzu@@
icht,
irgendwo
laufen
lebt
ler,
ologen
permetter@@
radic@@
rech@@
sagten:
scelta
schreiben
tern.
terza
the
uzione
vero?
w.
wandel@@
zon@@
Bur@@
Fu@@
Gesicht
Markt
Mos@@
Ovvi@@
Richt@@
Sau@@
Vier@@
accade
archit@@
are@@
argom@@
ave
bot@@
darauf,
desto
elle,
gesell@@
insieme.
integ@@
ione
l'unico
lau@@
raggiun@@
ritrov@@
semplice.
soprattutto
sviluppare
tiv
ungss@@
visit@@
winzi@@
wusst@@
zo@@
"B@@
2,@@
Dr.
Geschichte,
HIV
Inst@@
Kamer@@
Kind@@
Kinder,
Kosten
Negli
Off@@
bambini,
bekannt
bewusst
bro@@
cervello,
creativ@@
denaro
effizi@@
enden,
erin
fond@@
gewi@@
keiten,
kun@@
lesen
mostrarvi
nost@@
ordn@@
otter@@
prakt@@
princip@@
relazioni
ri,
stimol@@
tig,
tz@@
univer@@
vill@@
Alter
Bal@@
Ergebnis
Frage,
Gh@@
Hilf@@
Information
Je@@
Kraft
Mart@@
Organ@@
Revolution
Sicht
Tor@@
adul@@
anden,
bili,
cancr@@
comincia
denti
esi,
ettu@@
ften
herzu@@
ingen@@
innovazione
insi@@
ismo,
l'altro
piu'
salt@@
senso,
sign@@
stia
termine
tut
verteil@@
Fu
Guardate
Koll@@
Kont@@
Maschine
Nig@@
Q@@
Struktur
Tur@@
altri,
arbei@@
bekommt
der.
doll@@
eb
elementi
erreichen
eta
gol@@
grund@@
ispir@@
isten
kaum
larg@@
materia
mente.
muover@@
obb@@
parte.
precis@@
preg@@
ri.
stile
tecnologia,
tenere
tutti,
veg@@
venuto
&amp@@
Aufgabe
Bereich
Erfin@@
Grenzen
Kra@@
Nessuno
No,
Techni@@
a!
aggiun@@
akt
arab@@
aufge@@
bewus@@
cervell@@
chiu@@
cio@@
destra@@
ekt@@
era,
ey,
fahren,
idi@@
intero
inu@@
lieben
lista
nazion@@
normalerweise
nur,
oco
os.
riesige
sich.
sostitu@@
spiegare
te:
tiert
triff@@
vedo
veniva
zen@@
zweiten
Bill
Doll@@
Fo@@
Genau
Jon@@
Kal@@
Klass@@
Menschen@@
Milliar@@
Nation@@
Prozess@@
annte
asc@@
bru@@
compas@@
convers@@
destra
doveva
gru@@
ik
it
klar
modific@@
mostra@@
necessario
nutri@@
porto
potenziale
programmi
quin@@
riesce
robot@@
schnitt
sessu@@
soluzioni
sviluppato
trotzdem
ump@@
uscire
uto,
wollte,
150
Bud@@
Chri@@
Fi@@
GP@@
Hig@@
Liebling@@
Ort,
Radi@@
Rech@@
a",
aben
abili@@
alcun
cerebr@@
comin@@
contatto
cresc@@
demi@@
dettagli@@
diritti
dito
einzigen
emotion@@
inclu@@
interessante.
keiten.
konnten.
lezione
mehrere
miglia
mille.
percorso
pfen
semplici
stai
volta.
wort@@
3,
Beru@@
Bezug
Daher
Danke
Det@@
Einfluss
Fe@@
Herr@@
Individu@@
Ki@@
Krankheiten
Mich@@
Pensate
Quad@@
Schulen
andate
aren
civil@@
contribu@@
davon.
dedic@@
dell@@
ent,
esia
esistono
esta
gelang@@
gutes
hatt@@
influenz@@
insegnanti
jungen
legen
mento.
mung
nis,
nonostante
ossia
partic@@
personale
prendono
produk@@
qualcos@@
ridurre
schaf@@
schlecht
schwierig
seltsam@@
"J@@
20.
7,
9,
A:
Bus@@
Du@@
Ereig@@
Fer@@
Gal@@
Ident@@
Intellig@@
MI@@
Michael
Modell@@
Rest@@
Stad@@
Uhr
West@@
animale
attorno
diventano
enne
erinnere
extr@@
ezioni
farvi
felice
ger,
guter
helfen.
ieri
interesse
lavori
nero
nun,
occhio
organizzazione
passieren
pau@@
pensando
profess@@
pub@@
ragazzi@@
software
strum@@
t."
tecnolog@@
unge
vitti@@
yl@@
ze@@
!@@
Avevo
Bildung
Erano
Erfolg
Exper@@
Frauen,
George
Gruppen
Harv@@
Jap@@
Karri@@
Kop@@
Qualcuno
Situ@@
Sub@@
Tim@@
abilmente
aiuto
artist@@
atten
ba
bero
dy@@
effic@@
ennen
entfernt
extrem
fir@@
gezeigt
hielt
ita.
l'anno
langsam
niamo
parlav@@
sfrutt@@
sollten.
sour@@
stol@@
tele@@
tiges
use
vedere,
voluto
wohl@@
Armut
Beispiele
Imm@@
Prob@@
Quel
Quella
Sappiamo
Stat@@
andata
antwort@@
ascol@@
aspetti
biet@@
busin@@
diventata
dot@@
eur@@
ff
finest@@
gebor@@
gewesen
glich@@
halt
her.
krat@@
lavorano
neun
o",
oltre,
qual
schn@@
stig@@
trei@@
uov@@
vari
vedrete
10.000
Luft@@
Mal,
Medien
Sci@@
US-@@
ail
algorit@@
all'inizio
anne
api
atori@@
bin,
blo@@
carbon@@
direzione
eht.
einand@@
fern@@
gelernt
governi
haft
immag@@
licherweise
magnet@@
massa
potente
presente
profondit@@
proz@@
raccontare
reich
ril@@
ritte
ritten
seit@@
sieren
silenzi@@
spavent@@
spiega
stoff
toc@@
vecchio
verific@@
versucht,
weisen
wenige
Ahn@@
Dinge.
Dritt@@
Eg@@
Herausforderung
Ih@@
Jos@@
Lauf@@
Sin@@
Sonne
Stamm@@
Theorie
Vergangenheit
Wider@@
ail@@
americani
begannen
bre
dati,
democrazia
diesel@@
dort@@
edificio
ersch@@
esp@@
fant@@
gi,
giochi
herr@@
informat@@
mettiamo
notwen@@
pflanz@@
riconos@@
rischi@@
sahen
schlechte
sente
setzt
simb@@
tasso
telefon@@
tol@@
umor@@
uscit@@
verantwort@@
verbunden
vot@@
wissenschaf@@
zellen
"D@@
"Wie
Anti@@
Dove
Energie@@
Franc@@
Krankheit
Letz@@
Mann,
Orten
Pan@@
Sa@@
Son@@
V
aktu@@
amor@@
arti
cambia
cru@@
einfach.
erreichen.
esperi@@
gent@@
hel@@
ingl@@
ismo.
istruzione
kennen,
lit@@
luog@@
mart@@
mese
momento.
nachhal@@
overe
pall@@
partire
pesce
plo@@
quegli
sapevo
seines
sinistra
spielen.
treff@@
vorher
"Die
45
Anwend@@
Beginn
Californi@@
Ding
Einer
Erfahr@@
Juli@@
Kol@@
Lon@@
Posso
Produkt
Statist@@
TED-@@
Wiss@@
abet@@
alt.
anci@@
arbeitet
autor@@
ax@@
ay,
blu@@
clin@@
cono,
dati.
demo@@
dere,
due,
dunk@@
eci@@
eco@@
ehn@@
endere
enr@@
fallen
gestellt.
glio
heutzutage
ks
laut@@
recuper@@
reich@@
stran@@
sullo
tag@@
unterneh@@
verbra@@
verl@@
wirtschaft
ziel@@
"-@@
B.
Charles
Konzept
Minut@@
Regeln
Sam@@
Somm@@
Tagen
Unser
arbeitete
chst@@
clas@@
confl@@
costr@@
d'accor@@
damit,
deser@@
digitale
dirett@@
direttamente
dite
entlichen
erfun@@
eria
filos@@
fonte
icamente,
install@@
ition
krieg@@
minist@@
nennt
risor@@
ruh@@
scegliere
sembr@@
sitzen
sollte,
strade
tradition@@
umano.
vag@@
web@@
werk@@
"Il
2,
5,
Erwachsen@@
Gebiet
Hu@@
John@@
Klei@@
Nachricht
National
Pakist@@
Sonnen@@
Wir@@
anischen
anni@@
atell@@
civi@@
computer.
controllare
dein
energet@@
esempio.
esen.
eter
famiglie
forz@@
fossi@@
futur@@
getr@@
ier
illumin@@
importa
imprendit@@
lagen
lo,
offri@@
potevo
proprie
ricostru@@
sch.
schnei@@
sembrare
servizio
so:
spos@@
tat
tim@@
ton
trover@@
unico
verloren
will.
35
Arbei@@
Bis@@
F:
Int@@
R:
Spezi@@
andando
ationen.
ato?
att
bau
bestimmt
correre
dia
dieci
dipen@@
ebenso
effettivamente
einf@@
eister@@
entra
esperimento
ettere
fogli@@
gef@@
gelern@@
ghiacci@@
gia
gior@@
giu@@
hundert
ihr@@
immer,
mir@@
mori@@
oh
oh,
parliamo
poche
prese
punk@@
ridu@@
s?
scat@@
sch,
scopo
servizi
shi@@
stieg
troviamo
umzu@@
y-@@
0er
Amerikaner
Charak@@
Facci@@
Grupp@@
Instituti@@
Kreativit@@
Labor@@
Manche
Milli@@
Orte
Pop@@
Profess@@
Regierungen
Uniti.
alizzazione
atamente,
aufreg@@
aumento
colore
computer,
costi
darin,
denz@@
dirvi
echt@@
erinn@@
estin@@
fahren.
fertig@@
gebracht
genann@@
ges
guarda
itz
momenti
nimm@@
omin@@
permesso
presi@@
qualcosa.
raccogliere
reden,
reichen
rispondere
rup@@
sach@@
scambi@@
scriv@@
sogg@@
sollen
totalmente
velocemente
4.
Ama@@
Auswirkungen
Beding@@
E-Ma@@
Fehler
Har@@
Ingenie@@
Internet.
New@@
Ol@@
Ori@@
Pos@@
Prei@@
T
Woh@@
afen
aggr@@
bleiben
chiedere
classe
comprendere
confin@@
durchschnitt@@
eigenes
einfachen
einzigar@@
erweise
esegu@@
fabbr@@
forn@@
gente.
gesag@@
gestellt,
gewach@@
illu@@
interessant
nove
ock
onen,
onlin@@
peso
pli@@
ramm@@
rapporto
recente
rund
sagten,
seguito
significato
sobald
struktur@@
tun@@
volare
ziehen,
Don@@
Dor@@
Erkennt@@
Fir@@
Firmen
Gedi@@
Kun@@
Nehmen
Prinzip
Produ@@
Recht@@
Stre@@
abl@@
afrikan@@
alog@@
annten
auto@@
blu
camm@@
cattur@@
ches
de?
decisioni
dige
discor@@
dubbi@@
epoca
etro.
fenomeno
fra@@
funktionieren
har@@
infra@@
inspiri@@
itte
koll@@
l'ar@@
l'unica
llen
misura
molto.
ogna
ok,
pezzi
scelte
stellt,
stupi@@
successo.
terapi@@
uff@@
umana.
vorstellen
vu@@
wichtig.
zia
Aufmerksamkeit
Ebene
Evolution
Geschwindi@@
Instrum@@
OK,
Ot@@
Technologie,
Thomas
Tutte
Weise,
adol@@
almente.
asta
avanz@@
avessi
avvi@@
brac@@
credo,
danke
de:
designer
elabor@@
form
fornire
frat@@
gin@@
incontrato
indipend@@
lehr@@
mano.
piedi@@
portano
proveni@@
rappresenta
sinist@@
sotto@@
spero
spin@@
ultur@@
vuoi
wert
1.@@
600
Ari@@
Darw@@
Erfahrungen
Gri@@
Higg@@
Kollegen
Konflik@@
L
Na@@
Plast@@
Port@@
Seiten
Stelle
Ther@@
Weg,
Zeich@@
akt@@
aperto
atore.
avia,
beeindruck@@
bem@@
besonder@@
bio@@
blau@@
cima
cke
elem@@
es:
ession@@
feld
forze
gente,
grafic@@
intera
itt
lic@@
lik@@
mangiare
nazione
occupar@@
ograph@@
predi@@
sah,
schei@@
soffer@@
tradi@@
typ@@
verfol@@
.,
Entwickl@@
Ergebnisse
Fotos
Infra@@
Million
Okay.
Quest@@
Sembra
Wh@@
X
allgem@@
aro
ature
bello
bic@@
contesto
costitu@@
credere
dimento
ebr@@
efer@@
eg
eln@@
entwickeln,
erreicht
fase
fig
gebi@@
guardiamo
hoffe,
icato
icolo
incredibile.
iti.
krit@@
leggi
naturalmente,
nego@@
niente.
opportun@@
paese,
prendiamo
punto,
rank@@
risparmi@@
saper@@
scim@@
trag
treffen
umani.
zent@@
"L@@
3.
;@@
Fernseh@@
Funktion@@
Geweb@@
Go@@
Hoffn@@
IS@@
Kris@@
Menschheit
P
Perspek@@
Pfl@@
Sei
Sohn
Syn@@
Wichtig@@
You@@
Zahl@@
agne
ahl
altung
atori.
bar,
boc@@
dif@@
difficol@@
dinosau@@
discut@@
efficac@@
estr@@
etten
farlo,
fin
fug@@
generale
intervento
l'altra
los.
metafor@@
orri@@
pet@@
riusciamo
scher
sprach
stesso.
trem@@
unterschei@@
up@@
vend@@
vergleich@@
viso
welcher
8.
Artikel
Chicag@@
Dev@@
ED@@
Job
Kli@@
Monaten
Nummer
Sauerst@@
Solar@@
Tats@@
Wikip@@
Wur@@
ado
ager
aiuta
angeb@@
appassion@@
astron@@
atiche
attent@@
besondere
chil@@
ciasc@@
continua
corsi
dadurch
desiderio
dichiar@@
disper@@
document@@
economica
egal
ela
entscheiden@@
esplo@@
genannt
gesehen.
get
heim@@
impedi@@
inistr@@
lebens@@
ling
metodo
mitten
nein,
ner,
oceano
orb@@
quanti@@
ragioni
rapidamente
ricom@@
schrei@@
schwi@@
sten.
svol@@
team
terr@@
totale
unterschiedliche
usi@@
B
Den@@
Experiment@@
James
Museum
Politik
Programm
TED.
Va
Wachstum
analisi
anco@@
appon@@
arry
benutzt
cittadini
creando
creature
dritte
duc@@
ecke
elle.
esperienze
giustizi@@
heutigen
livelli
lontano
ollen
pazz@@
pi.
pieno
rice@@
riten@@
sieht.
simili
sogen@@
somm@@
speranza
treib@@
unden,
unger
usate
volte,
ward
zo
Chanc@@
Diskus@@
Dort
Entscheid@@
Epi@@
Komplex@@
Ris@@
Sto
TEDx@@
Times
Wirklichkeit
Wun@@
abile,
alt,
betei@@
brit@@
compagni@@
comprare
corpo.
dallo
doc@@
equ@@
ettr@@
formen
genere.
giocare
grafico
hin,
hren
iPh@@
interessant@@
itori
jahr@@
klu@@
missione
mostrano
offensichtlich
olle
ologische
opini@@
osen
pann@@
particolarmente
presi
qualcosa,
sel
sollten,
ta,
venivano
vermei@@
vissuto
zun@@
zusammen,
"Es
1000
BG:
Brit@@
Chin@@
Formen
Fort@@
Jedes
Kopf@@
Linie
Material
Mitgli@@
Monat
Noch
Pers@@
Por@@
Tatsache,
Tutt@@
Wirtschafts@@
Worte
ahn
akzep@@
atellit@@
ativo.
bin.
blocc@@
braccio
colleghi
dings
erinnern,
fik@@
franc@@
front@@
gefunden,
globale.
haus@@
internazion@@
kommuni@@
lasse
leich@@
mapp@@
mondiale
nec@@
onnen
organisier@@
pensier@@
poveri
principale
profit@@
ragazza
resi@@
scolast@@
solamente
spedi@@
ste.
stellten
sterben
stessi.
tecnologia.
teren
umani,
valori
vento
wiederhol@@
ziehen.
Atom@@
Basi@@
Ergeb@@
Haben
Herz
Journ@@
Lit@@
Ok.
Pra@@
Sei@@
Sta
Systeme
Teilen
Umwelt
Vari@@
acceler@@
ara
arrivato
arsi.
auti@@
certa
cken
cogn@@
dinam@@
ef
elte
ettiamo
etzt
finde
guida
imit@@
itat
kompl@@
kra@@
matrimon@@
mich.
mier@@
opera
orit@@
ossigen@@
paziente
provoc@@
put@@
rau@@
region@@
schwier@@
scoperta
sembrava
seri@@
verwenden,
"Beh,
Afghanist@@
Asi@@
Bost@@
Hot@@
Innovation
Kontr@@
Liste
Patient@@
S-@@
Sim@@
Software
Studien
Volevo
Vortrag@@
abili.
at.
attra@@
auton@@
compren@@
costruzione
creazione
cro@@
elettron@@
emente.
enheit
enze.
farci
gab.
gesprochen
greif@@
halte
hig
icoli
imbar@@
incoraggi@@
inder@@
insegnato
issimi
l'energia
notizia
peri@@
piena
presto
psicolog@@
rap@@
rare
simul@@
sostanzi@@
strada.
uccis@@
vant@@
verlor@@
zusetz@@
Africa.
Bank@@
Bewusstsein
Cap@@
Cas@@
Cominci@@
Hirn@@
Jahre,
Manchmal
Strom@@
Tag,
Vedete
aner
atore,
berei@@
bilden
chiest@@
circon@@
disturb@@
diventando
els
embr@@
erreichen,
etzt,
fai
fondamentale
forest@@
gefun@@
hab
hr
insegnante
l'es@@
maggior@@
membri
messi
ossen
paese.
parlarvi
propor@@
prossi@@
prove
razion@@
reden.
rick@@
riconosci@@
spazi
specific@@
ta.
talmente
terra,
tier@@
tieren
tion,
tue
utz
vendo
Afghanistan
Dru@@
Experiment
Hunder@@
Personen
Qual
Robert
Sand@@
Spezies
Tri@@
UN@@
Version
Will@@
alberi
alli
ator
bewegen.
buone
case
cittad@@
cogli@@
consumat@@
contin@@
cos'@@
depres@@
durchge@@
ement
ensei@@
erfolgreich
funziona.
icht.
importanza
ines@@
intit@@
ist?
klar@@
nation@@
nennen.
nerv@@
notare
ossi@@
percent@@
piacci@@
ppen
rechts
schlimm@@
teilen.
trad@@
versuche
verwendet
vollen
wiss@@
wusste,
zeigte
5.000
Berei@@
Beziehungen
Bildschir@@
Bis
C.
Dan
Frau,
Gewi@@
Interesse
Intern@@
Ma,
Ozean
Pub@@
Tier
Zwei
andeln
battagli@@
batteri
caff@@
chilom@@
conoscere
dasselbe
difficile.
droh@@
dun@@
enzu@@
esperimenti
etwor@@
evitare
funzione
gens
idea,
insieme,
keiner
lim@@
molt@@
occ@@
ovunque
portata
preven@@
realt@@
rechte
ringrazi@@
scegli@@
sech@@
sei,
stig
unglaubliche
utilizzare
Bakterien
CO2
Diag@@
Entwicklungsl@@
Got@@
Hall@@
Kampf
Schei@@
Sen@@
ador@@
apit@@
ato:
ber,
bewegt
bleibt
brech@@
certamente
collettiv@@
dam
dovevo
einfach,
endete
entwickelt,
etta.
ford
ganzes
giudi@@
greich@@
herunter@@
ierung
influenza
istitu@@
jemandem
jene
ka
kel
lat@@
mac@@
mazione
molecol@@
ne.
nota
obietti@@
ose.
phi@@
produce
proi@@
sarei
singola
sinn@@
spir@@
stand,
struktur
studente
successiv@@
terra.
trans@@
unden@@
unterschied@@
urb@@
usi
verhinder@@
weiteres
"Come
&@@
3D@@
Ach@@
Dur@@
Durch
Fant@@
Genau@@
Internet,
Mic@@
Must@@
Nahrungs@@
Sc@@
Typ
Untersuch@@
Wahl
Wasser,
amerikanische
asso
atto.
azien@@
befinden
bewirk@@
chines@@
compassione
conferenza
confront@@
cure
darvi
dimensione
diversi.
ei,
element@@
enormi
ettare
ferm@@
freu@@
giornalist@@
giun@@
ich:
intendo
issime
laure@@
lernen.
manifest@@
modernen
niedri@@
ordine
organizzazioni
prodot@@
rallent@@
riusciti
schreib@@
tec@@
ug@@
vegli@@
verde
versuchte
weib@@
5%
50.000
Anderson:
Fehl@@
Land,
Lo@@
Mehr@@
Musik@@
Organisation
Ressourcen
Result@@
T:
Verhaltens@@
Werk@@
Wesen
Zeitpunkt
ah,
ahr@@
ala
alisierung
ancor@@
anon@@
anst@@
beantwort@@
begr@@
cad@@
decidere
differenze
diminu@@
ecchio
ei.
elles
eure
frei
freund@@
funzionare
gamb@@
gestire
ghiaccio
glam@@
guardano
illustr@@
indoss@@
ingen,
klein
l'
l'hanno
nach.
nar@@
occa@@
pack@@
partit@@
piacerebbe
presenti
puli@@
q@@
questo?
reazione
riescono
secolo,
seguire
stec@@
tief
tub@@
unque.
weil@@
zeug@@
zzare
Africa,
Aus
Invece
Kab@@
Meeres@@
Mein@@
Name
OK.
Rah@@
Steve
Strateg@@
USA,
acquist@@
adesso,
alismus
avi
bares
beh,
bol@@
capaci
capo
codice
consumo
da:
denkt,
erinnern
erlaubt
ette,
etw@@
farsi
forman@@
ita,
klassi@@
l'ultima
la.
meglio.
mento,
miss@@
navi@@
neuroni
opti@@
oriamo
parti@@
politischen
previ@@
ramm
realizzato
ricerche
rief
righ@@
rono
schauen,
signor@@
simil@@
soli
solu@@
sopravviv@@
sowie
squadra
standard
stron@@
sum@@
svegli@@
tast@@
ura,
vacc@@
wirklich,
wohin
Arm
Arm@@
Autor@@
Aveva
Certo,
Depres@@
Eing@@
Farbe
Fest@@
Gott@@
Interak@@
Kamera
Kri@@
L'ho
Les@@
Leut@@
Moment,
Morgen
Nachrichten
Spitze
TED,
Vertr@@
Warum?
Weltr@@
allora,
an:
andosi
archi@@
architettura
argomento
arlo,
arrivano
biot@@
dlichen
genommen,
gliche
ingegn@@
insegnare
kaufen
lag
megli@@
nazioni
nehme
nis.
onde
ord
pret@@
quattr@@
rav@@
ricch@@
riesigen
rimane
rivolu@@
schon,
selbst.
sichtlich
soli@@
spielt
sup@@
tecnologi@@
tigli@@
ton,
tro@@
umul@@
ung:
vertrau@@
vileg@@
villaggio
vorstell@@
vulner@@
wahrschein@@
weit@@
werden@@
10,
14@@
2-@@
Arab@@
Behandlung
Big
Brow@@
Buch@@
Dav@@
Druck@@
Familien
Familien@@
Fenst@@
Frank@@
Gegent@@
Hoffnung
Iran@@
Jungen
Kaliforni@@
Keine
Lini@@
Nob@@
Produkte
Theori@@
Vielfal@@
alcuna
artifici@@
aussehen
avremo
avven@@
bisher
comput@@
corpo,
dien@@
difficili
donne,
etro,
fab@@
fest,
gegangen
gering@@
geschrieben
grande.
heraus
ispi@@
l'intero
links
lungen
onie
ostac@@
pi,
piante
ppure,
principali
profond@@
quante
que,
ras@@
riguar@@
stimmt
stoffe
suoni
taus@@
traf
trasformare
volevano
wahr?
wichtigsten
wollte.
0-@@
Ed@@
Entscheidung
Entwicklungs@@
Facebo@@
Gene
Haw@@
Hum@@
Jan@@
Mathematik
Medizin
Opfer
Os@@
Person,
Reak@@
Real@@
Sache.
Sel@@
Suche
Temper@@
Unit@@
Vediamo
Wissenschaf@@
alter@@
altet
atemi
brauchen,
croll@@
date
diversa
ebenfalls
entwer@@
enze,
fe@@
fiche
geboren
geni@@
jetzt,
male.
mir:
nahe
nascon@@
noch@@
nuovo.
ologischen
ons
organismi
oscur@@
parlano
risposte
ritt
riuscit@@
rov@@
sik@@
spre@@
t;@@
tel
teles@@
ust
ver
volo
w,
wieso
00.000
195@@
3,@@
Cir@@
Demok@@
Der@@
Eis
Emo@@
Finanz@@
Inizi@@
Insek@@
Iran
It@@
Las@@
P:
Prinzi@@
Privat@@
Sho@@
Sil@@
Spa@@
Stadt@@
Stev@@
TV@@
Tem@@
US@@
Vedete,
Vogli@@
W:
analy@@
arbeite
arrivati
ascoltare
avanti.
bemerkenswer@@
betrachten
coli
ds
edific@@
ektion
endet
ernst@@
esprim@@
et:
fa@@
foresta
fratt@@
futuro,
hist@@
iges
intelligente
lavora
manc@@
mercati
morti
negozi@@
olli@@
ollywoo@@
ow
porter@@
potrei
pubblico.
resti
reti
riconoscere
rimanere
ristor@@
sappi@@
secolo.
sene
sentono
servono
squal@@
sta@@
steu@@
umano,
vedono
verd@@
zel@@
"Warum
Antworten
Ball@@
Baum@@
C,
Dank
Ehr@@
Golf@@
India,
Konferenz
Leidenschaft
Neuro@@
Obam@@
Pap@@
Philos@@
Post@@
Student@@
Vergleich
Viel@@
Vog@@
World
aden,
aktiv
alc@@
altra.
anco
andav@@
articolo
begrenz@@
bi
cia,
circost@@
compito
copr@@
dabei,
dando
denkt
differenti
dipend@@
enz.
esi.
esperiment@@
esplorare
etica
genommen.
hilft
hohen
implic@@
interessiert
interno
ite,
konnten,
l'im@@
licht@@
maggiori
mai@@
mantenere
mathemat@@
nenne
neuer
orno
ox@@
permett@@
pezz@@
rebbero
regione
regist@@
ripar@@
riun@@
tausend
tion.
vedete,
viviamo
weise,
weiterhin
welchen
"F@@
'9@@
-T@@
250
Alex@@
Alzhei@@
Auge
Deut@@
Dimen@@
Drei@@
Flei@@
Folgen@@
Geschicht@@
Gesetz
Giust@@
Kap@@
Ke@@
M
Methode
Molte
N
Nacht@@
Nerv@@
Ost@@
Sha@@
Sozial@@
Ste@@
Stim@@
Unterschiede
York,
artista
aur@@
ausgest@@
benutzen,
biologi@@
butt@@
creano
disp@@
ektr@@
ender@@
ento.
erleb@@
ets
fuori.
gab,
ger.
gigant@@
gt.
icl@@
identi@@
inferi@@
ion
iste
jek@@
kannst
laboratori@@
linee
mancanza
medicina
mehr,
memoria
mir.
oria,
otta
pagare
passa
perdere
projek@@
respir@@
ricordare
rid@@
riuscire
schafft
selbst,
somit
staat@@
trotz
veloce
verschi@@
videogi@@
..
AR@@
Amerikan@@
Deb@@
Form@@
Krankenhaus
MIT
Mex@@
Nahrung
Objekt
Og@@
Politik@@
Region
Schwierig@@
Stan@@
Stunde
abei
addiritt@@
agon@@
alismo
arme
auto-@@
behaupt@@
bili@@
blic@@
certi
conseguenze
cool@@
cop@@
dentr@@
dibatt@@
diceva
dire:
disastr@@
falsche
felici
fotogra@@
fram@@
frase
fung@@
funzioni
gespro@@
handelt
iera
integr@@
interessante,
intro@@
kal@@
leader@@
lotta
miglior
moment@@
muc@@
nutzen.
nuvol@@
o'
occu@@
pien
ragazze
resi
rifu@@
riscald@@
sa,
sage,
scuola,
scuola.
sive
solare
sozus@@
stil@@
sweise
tracci@@
tragen.
trib@@
un'immagine
uova
varie
was,
wissen.
Altr@@
Ancor@@
Cha@@
Dinosau@@
Dorf
Fig@@
Kaff@@
Ker@@
Kontin@@
Landes
Lap@@
Metap@@
Netzwerk
Rock@@
Washington
Zuerst
angolo
animali,
aten.
auch.
aun@@
cano
caratteristiche
chest@@
destens
disposi@@
dreh@@
edifici
eine,
ellen@@
erstes
esim@@
faremo
fiducia
finalmente
fo@@
gehol@@
giard@@
gro@@
hinein@@
ht@@
impl@@
inglese
l'Africa
l'immagine
mamm@@
miliardo
noi@@
nuot@@
ool
oot
poch@@
rub@@
ruot@@
s"
schluss
sein?
sesso
telec@@
til@@
treten
tuoi
um:
web
weder
wissenschaftlichen
z.B.
99@@
Amerik@@
Arbeit,
Blick@@
C:
Detail@@
Dio,
Eigenschaften
Flug@@
Infatti,
Jahr.
Kern@@
Kilometer
Kir@@
Kontex@@
Mars
Mobil@@
NASA
Papier
Quelle
S,
Schlaf@@
Sex
Sex@@
Sur@@
Symb@@
T,
ardo
assembl@@
avessero
begann,
beschleun@@
bra
bung
chiaro
coi
comunicazione
conosciamo
corrispon@@
corru@@
costruir@@
do?
edono
egno
einhalb
entliche
erei
erhalten.
fantastico
fasst
fatte
fera
gekommen
geni
han
hl
kel@@
liqui@@
medici
moglie
monit@@
nach,
ooper@@
pagina
pesci
politische
probabile
pur
riamo
seduti
sexu@@
som@@
sono,
steckt
steht.
studiato
tizio
toren
vantaggio
wichtigen
wird@@
"?
"The
Arbeit.
Dollar.
Frage:
G
Ged@@
Geld@@
Geschi@@
Intervi@@
Ja.
Lernen
Markt@@
Meer
Molto
Punkte
Tom
Twitter
Verantwortung
Willi@@
agen,
arci.
arsi,
asci@@
atem@@
atevi
beob@@
blog@@
bom@@
brechen
bud@@
caratter@@
circu@@
compi@@
comprensione
dachten
data
dipende
diverse.
egen@@
eidig@@
eli@@
energie
favore
fertig
fossi
gewiss@@
giorni,
giusta
grandi@@
ickl@@
ipot@@
kosten@@
l'uomo
losen
mifer@@
offensicht@@
politiche
problemi.
prospettiva
rasch@@
regel@@
repar@@
respi@@
schmer@@
schreiben,
schu@@
segnali
sguardo
sific@@
sollev@@
sonn@@
spirit@@
unterschiedlichen
verein@@
vermutlich
zep@@
zeug
zug
..@@
19
Australi@@
Bild,
Brasili@@
Fach@@
Fun@@
Himmel
Keny@@
Leuten,
Mio
Mitge@@
Ness@@
Nov@@
Peter
Pflanz@@
Pflanzen
Potrebbe
Reaktion
Schwei@@
Treib@@
Zivilis@@
abol@@
alizzare
all.
allontan@@
anch@@
arten
bellezza
bend
betriff@@
blin@@
campi
capace
caratterist@@
cau@@
combattere
dipl@@
dollari,
enden.
esen,
evoli
fatti,
finire
gearbeitet
gehe
geschieht
globale,
grosso
guardar@@
hem@@
isi
kennen.
letztes
lichkeit,
lui.
lungh@@
mals
mand@@
niem@@
oli.
or,
para@@
pelle
positivo
produttiv@@
proteggere
raus@@
reale.
rigi@@
schreiben.
semplice,
sfide
stem
taten
tolle
treffen.
un'occhiata
unbeding@@
ung?
wenden
wus@@
zzo
%@@
0
Char@@
Chir@@
Defin@@
Due
Ecco,
Fabri@@
Facebook
Fein@@
Gegensatz
Grad
Hack@@
India.
Konzep@@
Lasciate
Lav@@
Maschinen
Mel@@
Mittel
Nachricht@@
Netz
Protot@@
Prov@@
Schlag@@
Sinne
Tradi@@
USA.
Verletz@@
Wunder@@
adesso.
adott@@
angeh@@
brauchen.
carriera
cellula
conflit@@
dafrik@@
derzeit
difficil@@
diritto
dlich
egen,
elten
ento,
entusias@@
erseit@@
es?
esempi@@
eting
fangen.
filtr@@
funzionano
gebrau@@
hand
herauszu@@
iere
ing-@@
inist@@
intelligenza
interessi@@
istituzioni
kut@@
pace
parlo
riuscito
rivol@@
schel@@
si:
sostanza
spec@@
spiritu@@
start@@
suchen,
traspar@@
ua
vorbei@@
weg.
weiter,
zy@@
cere
engl@@
esserci
evoluti@@
fantastico.
fec@@
genutzt
geteil@@
grande,
gur@@
hilfe
ihnen,
inspi@@
isst
jetz@@
kat@@
klin@@
lasciate
list@@
mechan@@
milli@@
mt
n?
nachdenken,
naturalmente
porre
questo:
rendono
scatola
siti
social
specialmente
stad@@
togli@@
train@@
ufficio
veni@@
via,
vista,
vuot@@
wenigen
wissenschaftliche
yn
yr@@
Ihr@@
Mathemati@@
Netz@@
Umgeb@@
chtig@@
ehl@@
gorit@@
membr@@
organis@@
pporto
strut@@
Alcun@@
ativit@@
gesam@@
ritto
stessi@@
vermut@@
zehn@@
Bakteri@@
Kamp@@
ediamo
influ@@
proteg@@
ule
Bedeut@@
Kil@@
Revoluti@@
The
Wachst@@
ay.
beding@@
igi@@
itze
oltr@@
piamo
signi@@
spett@@
Hir@@
Nam@@
Perch@@
bam@@
durre
Fac@@
Molek@@
coraggi@@
eite
genie@@
gestell@@
igli@@
meto@@
raccogli@@
ring@@
Austr@@
Behand@@
architett@@
democrazi@@
echan@@
rapid@@
viss@@
Instit@@
echni@@
manten@@
mill@@
ohl@@
tizi@@
welt
welt@@
Guard@@
Num@@
affr@@
democ@@
nem@@
mogli@@
verschieden@@
Dan@@
Erfol@@
R
faszin@@
fenom@@
fess@@
gib@@
gie
infer@@
isier@@
selb@@
Schwi@@
egli
jed@@
laub@@
Eigenschaf@@
begann@@
cina
pena
poste
prec@@
schnitt@@
volt@@
vul@@
ysi@@
Meer@@
bert
scol@@
scuol@@
Bewusst@@
Twit@@
abbast@@
funktion@@
livell@@
probabil@@
wit@@
Oberfl@@
capac@@
epo@@
miliar@@
ure,
Wirtschaft@@
enswer@@
modi@@
nur@@
orta
poss@@
sex@@
uk@@
usci@@
Polit@@
Wirt@@
espl@@
les
tram@@
U
Washing@@
ander
eich
fidu@@
ppor@@
Konf@@
agnet@@
echsel@@
occi@@
ula
wirt@@
Antwor@@
OK@@
liamo
sili@@
ada@@
berfl@@
catt@@
kos@@
line
nied@@
nut@@
riman@@
spek@@
svilu@@
Davi@@
K
Pau@@
Phil@@
Tut@@
Verantwort@@
ricon@@
Experim@@
Ty@@
bei,
ki@@
squad@@
$@@
Bev@@
econ@@
invol@@
inzi@@
kontr@@
prospettiv@@
Nahr@@
angu@@
ann,
assol@@
centin@@
gangen@@
guardo
labor@@
rispar@@
Is@@
Pati@@
abor@@
amerikan@@
bilmente
blei@@
sieh@@
soprat@@
vil@@
wachsen@@
ware
Dies@@
Sozi@@
bli@@
dell
enschaf@@
inn
maggi@@
oder@@
setti@@
tuto
Bezieh@@
Himm@@
Jam@@
Muse@@
entusi@@
it,
obiettiv@@
pend@@
windi@@
zahl
diss@@
ganz@@
razi@@
rur@@
Evoluti@@
Lan@@
Lasci@@
Mol@@
Rel@@
aia
ezi@@
fem@@
r,
usin@@
Aufmerksam@@
Nachri@@
cle@@
diffici@@
ding@@
edi
sinistr@@
voluti@@
woo@@
Afr@@
esto
sess@@
ulla
ehmen
freg@@
un,
Leiden@@
Zus@@
citt@@
contri@@
dest
esem@@
vat@@
chmal
eute
Hil@@
NA@@
Ov@@
agin@@
assolut@@
einzel@@
esatt@@
opo
propr@@
riera
schir@@
sino
Worl@@
ostante
Geor@@
Ogn@@
Techn@@
Vergangen@@
commer@@
$
Ken@@
Konfer@@
gger@@
selbe
struk@@
Ved@@
aube
emat@@
genutz@@
gig@@
pt
son:
svi@@
zeitig
Auswirk@@
Grazi@@
H
Ment@@
NAS@@
Pun@@
_@@
ambi
bbi@@
eim@@
ondere
Sich@@
approc@@
etz
forni@@
parteci@@
behau@@
fang
fluss
fut@@
nich@@
sofor@@
Ini@@
faci@@
prob@@
Artik@@
Krankenh@@
blem
eicht
gover@@
konzent@@
l'un@@
zdem
Immagin@@
Wach@@
afri@@
agric@@
icio
icur@@
Archit@@
Dim@@
F
brava
itik
q
trot@@
wort
zutage
@@@
Af@@
Selb@@
alcun@@
jeman@@
ontan@@
riscal@@
such@@
ten:
Lab@@
W
biamo
combat@@
compag@@
omia
rico@@
Bak@@
Kilomet@@
chit@@
dimen@@
ghi@@
nostr@@
scu@@
Fra@@
Gru@@
Ressourc@@
TE@@
consap@@
effettiv@@
icht
mad@@
rieb
ritti
azzi@@
chtig
sfr@@
under@@
ppo
provvis@@
spiel
ultur
Entw@@
Kommun@@
lea@@
opport@@
plizier@@
rus
unser@@
uter
versit@@
=
AI@@
diritt@@
dustri@@
istr@@
mom@@
ook
Comp@@
Hoff@@
Unterschi@@
Zivil@@
um?
ziem@@
ghan@@
hinder@@
produt@@
/
Alz@@
Feh@@
Ressour@@
genomm@@
rimon@@
HI@@
Verhalt@@
abri@@
armente
vell@@
+
E-@@
Y
amiamo
konn@@
ache,
cro
erig
ikan@@
insiem@@
osau@@
Pak@@
Q
atorio
ejen@@
ellig@@
enn
erig@@
)
ingeg@@
j
leun@@
num@@
ourn@@
[
abband@@
egli@@
fric@@
siasi
verwen@@
zin
#@@
Dah@@
dru@@
guada@@
kennt@@
osto
selt@@
zeh@@
+@@
Inv@@
J
Vereinig@@
Z
beein@@
cris@@
mas
ungef@@
vello
Entschei@@
Terr@@
ider@@
stem@@
aliforni@@
gemach@@
hemat@@
kei@@
mec@@
passion@@
ratie
un'occhi@@
Heraus@@
ohn
oter
pfer
dimin@@
unqu@@
Disk@@
Kompl@@
cun@@
ezzo
rem
.B.
Stra@@
Wiki@@
afor@@
distri@@
ensatz
petr@@
umindest
vostr@@
icil@@
piu@@
respon@@
sych@@
uttosto
*@@
buchst@@
ece
mut
sagt@@
(@@
Afghan@@
Tho@@
Was@@
erfolg@@
hemati@@
poten@@
urop@@
Micha@@
accel@@
ermin@@
haupt@@
merksam@@
rall@@
Din@@
alcuno
ernen
essour@@
impren@@
suff@@
artific@@
assem@@
avent@@
ddis@@
meh@@
Ener@@
Mens@@
_
ascin@@
avigli@@
britanni@@
interes@@
=@@
Allor@@
Masch@@
^
glei@@
simi@@
solut
hrend
terneh@@
amili@@
indi
indi,
itiche
prosp@@
ywoo@@
*
@
Arb@@
`@@
blem@@
entwick@@
flanz@@
@@
`
azi
pt:
vidu@@
Faceb@@
Uns@@
^@@
amit
elleicht
otidi@@
